{
  "version": "1.0",
  "truncation": null,
  "padding": null,
  "added_tokens": [
    {
      "id": 0,
      "content": "[UNK]",
      "single_word": false,
      "lstrip": false,
      "rstrip": false,
      "normalized": false,
      "special": true
    },
    {
      "id": 1,
      "content": "[CLS]",
      "single_word": false,
      "lstrip": false,
      "rstrip": false,
      "normalized": false,
      "special": true
    },
    {
      "id": 2,
      "content": "[SEP]",
      "single_word": false,
      "lstrip": false,
      "rstrip": false,
      "normalized": false,
      "special": true
    },
    {
      "id": 3,
      "content": "[PAD]",
      "single_word": false,
      "lstrip": false,
      "rstrip": false,
      "normalized": false,
      "special": true
    },
    {
      "id": 4,
      "content": "[MASK]",
      "single_word": false,
      "lstrip": false,
      "rstrip": false,
      "normalized": false,
      "special": true
    }
  ],
  "normalizer": {
    "type": "BertNormalizer",
    "clean_text": true,
    "handle_chinese_chars": true,
    "strip_accents": null,
    "lowercase": false
  },
  "pre_tokenizer": {
    "type": "Whitespace"
  },
  "post_processor": null,
  "decoder": null,
  "model": {
    "type": "BPE",
    "dropout": null,
    "unk_token": "[UNK]",
    "continuing_subword_prefix": null,
    "end_of_word_suffix": null,
    "fuse_unk": false,
    "byte_fallback": false,
    "ignore_merges": false,
    "vocab": {
      "[UNK]": 0,
      "[CLS]": 1,
      "[SEP]": 2,
      "[PAD]": 3,
      "[MASK]": 4,
      "!": 5,
      "\"": 6,
      "#": 7,
      "$": 8,
      "%": 9,
      "&": 10,
      "'": 11,
      "(": 12,
      ")": 13,
      "*": 14,
      "+": 15,
      ",": 16,
      "-": 17,
      ".": 18,
      "/": 19,
      "0": 20,
      "1": 21,
      "2": 22,
      "3": 23,
      "4": 24,
      "5": 25,
      "6": 26,
      "7": 27,
      "8": 28,
      "9": 29,
      ":": 30,
      ";": 31,
      "<": 32,
      "=": 33,
      ">": 34,
      "?": 35,
      "@": 36,
      "A": 37,
      "B": 38,
      "C": 39,
      "D": 40,
      "E": 41,
      "F": 42,
      "G": 43,
      "H": 44,
      "I": 45,
      "J": 46,
      "K": 47,
      "L": 48,
      "M": 49,
      "N": 50,
      "O": 51,
      "P": 52,
      "Q": 53,
      "R": 54,
      "S": 55,
      "T": 56,
      "U": 57,
      "V": 58,
      "W": 59,
      "X": 60,
      "Y": 61,
      "Z": 62,
      "[": 63,
      "\\": 64,
      "]": 65,
      "^": 66,
      "_": 67,
      "`": 68,
      "a": 69,
      "b": 70,
      "c": 71,
      "d": 72,
      "e": 73,
      "f": 74,
      "g": 75,
      "h": 76,
      "i": 77,
      "j": 78,
      "k": 79,
      "l": 80,
      "m": 81,
      "n": 82,
      "o": 83,
      "p": 84,
      "q": 85,
      "r": 86,
      "s": 87,
      "t": 88,
      "u": 89,
      "v": 90,
      "w": 91,
      "x": 92,
      "y": 93,
      "z": 94,
      "{": 95,
      "|": 96,
      "}": 97,
      "~": 98,
      "he": 99,
      "in": 100,
      "an": 101,
      "the": 102,
      "er": 103,
      "on": 104,
      "is": 105,
      "or": 106,
      "at": 107,
      "ar": 108,
      "of": 109,
      "es": 110,
      "al": 111,
      "en": 112,
      "ed": 113,
      "as": 114,
      "and": 115,
      "it": 116,
      "ic": 117,
      "re": 118,
      "ou": 119,
      "ion": 120,
      "ing": 121,
      "il": 122,
      "om": 123,
      "st": 124,
      "to": 125,
      "th": 126,
      "ent": 127,
      "le": 128,
      "ur": 129,
      "am": 130,
      "ol": 131,
      "The": 132,
      "ac": 133,
      "was": 134,
      "el": 135,
      "ro": 136,
      "ist": 137,
      "for": 138,
      "ad": 139,
      "ch": 140,
      "ation": 141,
      "se": 142,
      "iv": 143,
      "un": 144,
      "et": 145,
      "ig": 146,
      "ly": 147,
      "id": 148,
      "us": 149,
      "ter": 150,
      "ir": 151,
      "ec": 152,
      "ow": 153,
      "op": 154,
      "ul": 155,
      "ay": 156,
      "oun": 157,
      "19": 158,
      "by": 159,
      "ag": 160,
      "est": 161,
      "im": 162,
      "oc": 163,
      "em": 164,
      "It": 165,
      "ce": 166,
      "ian": 167,
      "20": 168,
      "ia": 169,
      "fr": 170,
      "ity": 171,
      "ra": 172,
      "are": 173,
      "ers": 174,
      "ot": 175,
      "ith": 176,
      "ated": 177,
      "art": 178,
      "con": 179,
      "wh": 180,
      "com": 181,
      "all": 182,
      "ies": 183,
      "pr": 184,
      "um": 185,
      "be": 186,
      "ov": 187,
      "de": 188,
      "with": 189,
      "ct": 190,
      "ain": 191,
      "St": 192,
      "ut": 193,
      "ap": 194,
      "ip": 195,
      "ab": 196,
      "from": 197,
      "ate": 198,
      "pl": 199,
      "av": 200,
      "od": 201,
      "tr": 202,
      "sp": 203,
      "mer": 204,
      "In": 205,
      "pro": 206,
      "ear": 207,
      "\"\"": 208,
      "cl": 209,
      "ill": 210,
      "ast": 211,
      "sh": 212,
      "ther": 213,
      "land": 214,
      "ub": 215,
      "ish": 216,
      "own": 217,
      "ess": 218,
      "os": 219,
      "ich": 220,
      "man": 221,
      "ant": 222,
      "ber": 223,
      "Ch": 224,
      "ex": 225,
      "ine": 226,
      "ial": 227,
      "if": 228,
      "ak": 229,
      "ge": 230,
      "igh": 231,
      "Un": 232,
      "his": 233,
      "ort": 234,
      "als": 235,
      "qu": 236,
      "ound": 237,
      "loc": 238,
      "str": 239,
      "ard": 240,
      "201": 241,
      "ive": 242,
      "He": 243,
      "ical": 244,
      "ong": 245,
      "that": 246,
      "ud": 247,
      "te": 248,
      "ran": 249,
      "part": 250,
      "ment": 251,
      "ary": 252,
      "one": 253,
      "ew": 254,
      "our": 255,
      "ount": 256,
      "per": 257,
      "ost": 258,
      "ric": 259,
      "its": 260,
      "res": 261,
      "ates": 262,
      "has": 263,
      "ev": 264,
      "kn": 265,
      "ass": 266,
      "erv": 267,
      "ect": 268,
      "cent": 269,
      "which": 270,
      "age": 271,
      "gh": 272,
      "og": 273,
      "ld": 274,
      "ell": 275,
      "act": 276,
      "end": 277,
      "ited": 278,
      "ous": 279,
      "ican": 280,
      "tern": 281,
      "ational": 282,
      "uc": 283,
      "known": 284,
      "also": 285,
      "ib": 286,
      "over": 287,
      "rit": 288,
      "18": 289,
      "ign": 290,
      "der": 291,
      "Amer": 292,
      "ame": 293,
      "00": 294,
      "ens": 295,
      "ure": 296,
      "comp": 297,
      "wor": 298,
      "Ar": 299,
      "outh": 300,
      "iz": 301,
      "comm": 302,
      "located": 303,
      "uil": 304,
      "ue": 305,
      "ph": 306,
      "United": 307,
      "we": 308,
      "wn": 309,
      "ark": 310,
      "nor": 311,
      "ough": 312,
      "way": 313,
      "who": 314,
      "gr": 315,
      "serv": 316,
      "ire": 317,
      "ere": 318,
      "up": 319,
      "irst": 320,
      "istor": 321,
      "reg": 322,
      "buil": 323,
      "opul": 324,
      "Re": 325,
      "out": 326,
      "rict": 327,
      "des": 328,
      "spec": 329,
      "American": 330,
      "form": 331,
      "States": 332,
      "ction": 333,
      "gen": 334,
      "istrict": 335,
      "af": 336,
      "Al": 337,
      "popul": 338,
      "ne": 339,
      "au": 340,
      "ore": 341,
      "ounty": 342,
      "first": 343,
      "her": 344,
      "ace": 345,
      "were": 346,
      "ight": 347,
      "ily": 348,
      "ng": 349,
      "town": 350,
      "200": 351,
      "ult": 352,
      "port": 353,
      "ater": 354,
      "city": 355,
      "co": 356,
      "list": 357,
      "ok": 358,
      "pe": 359,
      "play": 360,
      "ice": 361,
      "Au": 362,
      "ach": 363,
      "ince": 364,
      "ding": 365,
      "fl": 366,
      "ition": 367,
      "eral": 368,
      "Nor": 369,
      "uring": 370,
      "incl": 371,
      "ie": 372,
      "ome": 373,
      "sc": 374,
      "ang": 375,
      "wo": 376,
      "fam": 377,
      "aw": 378,
      "ember": 379,
      "ubl": 380,
      "ide": 381,
      "most": 382,
      "hav": 383,
      "year": 384,
      "lar": 385,
      "New": 386,
      "ans": 387,
      "ree": 388,
      "ack": 389,
      "ke": 390,
      "br": 391,
      "bo": 392,
      "iss": 393,
      "pol": 394,
      "found": 395,
      "ele": 396,
      "ations": 397,
      "other": 398,
      "amp": 399,
      "min": 400,
      "whe": 401,
      "col": 402,
      "hed": 403,
      "been": 404,
      "histor": 405,
      ".\"": 406,
      "publ": 407,
      "As": 408,
      "pres": 409,
      "ind": 410,
      "ry": 411,
      "old": 412,
      "iver": 413,
      "air": 414,
      "An": 415,
      "bet": 416,
      "off": 417,
      "Ind": 418,
      "ally": 419,
      "ence": 420,
      "cor": 421,
      "ton": 422,
      "ball": 423,
      "species": 424,
      "ail": 425,
      "population": 426,
      "state": 427,
      "ob": 428,
      "ely": 429,
      "County": 430,
      "Eng": 431,
      "ury": 432,
      "su": 433,
      "This": 434,
      "cur": 435,
      "ade": 436,
      "work": 437,
      "pt": 438,
      "bor": 439,
      "have": 440,
      "use": 441,
      "ween": 442,
      "bas": 443,
      "int": 444,
      "includ": 445,
      "family": 446,
      "ship": 447,
      "icip": 448,
      "Mar": 449,
      "not": 450,
      "Le": 451,
      "ae": 452,
      "any": 453,
      "during": 454,
      "used": 455,
      "les": 456,
      "but": 457,
      "Ger": 458,
      "att": 459,
      "between": 460,
      "ite": 461,
      "ath": 462,
      "main": 463,
      "Com": 464,
      "sy": 465,
      "ren": 466,
      "thern": 467,
      "ri": 468,
      "ivers": 469,
      "ents": 470,
      "vel": 471,
      "many": 472,
      "Fran": 473,
      "fer": 474,
      "War": 475,
      "red": 476,
      "ality": 477,
      "oll": 478,
      "io": 479,
      "ative": 480,
      "sub": 481,
      "National": 482,
      "district": 483,
      "design": 484,
      "cont": 485,
      "mon": 486,
      "mun": 487,
      "ust": 488,
      "me": 489,
      "two": 490,
      "area": 491,
      "bec": 492,
      "che": 493,
      "Austr": 494,
      "eng": 495,
      "ts": 496,
      "li": 497,
      "ah": 498,
      "Wor": 499,
      "ions": 500,
      "nam": 501,
      "ile": 502,
      "Ro": 503,
      "oper": 504,
      "ty": 505,
      "north": 506,
      "ime": 507,
      "par": 508,
      "ool": 509,
      "ver": 510,
      "South": 511,
      "ins": 512,
      "cons": 513,
      "Jo": 514,
      "aj": 515,
      "ouse": 516,
      "prod": 517,
      "ond": 518,
      "century": 519,
      "ral": 520,
      "former": 521,
      "polit": 522,
      "olog": 523,
      "ese": 524,
      "oot": 525,
      "able": 526,
      "ann": 527,
      "after": 528,
      "urch": 529,
      "ces": 530,
      "pre": 531,
      "199": 532,
      "prov": 533,
      "south": 534,
      "ional": 535,
      "ina": 536,
      "ica": 537,
      "their": 538,
      "gan": 539,
      "med": 540,
      "west": 541,
      "She": 542,
      "only": 543,
      "Sh": 544,
      "name": 545,
      "building": 546,
      "For": 547,
      "ten": 548,
      "public": 549,
      "mil": 550,
      "rough": 551,
      "uct": 552,
      "ious": 553,
      "ific": 554,
      "ory": 555,
      "vill": 556,
      "arch": 557,
      "World": 558,
      "ural": 559,
      "Is": 560,
      "car": 561,
      "17": 562,
      "cre": 563,
      "into": 564,
      "Th": 565,
      "Brit": 566,
      "po": 567,
      "can": 568,
      "North": 569,
      "commun": 570,
      "municip": 571,
      "iversity": 572,
      "ied": 573,
      "rel": 574,
      "had": 575,
      "under": 576,
      "cy": 577,
      "ident": 578,
      "rail": 579,
      "ensus": 580,
      "lin": 581,
      "estern": 582,
      "dis": 583,
      "chool": 584,
      "built": 585,
      "Col": 586,
      "cr": 587,
      "ood": 588,
      "ished": 589,
      "Sp": 590,
      "Austral": 591,
      "sm": 592,
      "ors": 593,
      "ance": 594,
      "apan": 595,
      "unt": 596,
      "Pr": 597,
      "iel": 598,
      "iet": 599,
      "Can": 600,
      "Japan": 601,
      "well": 602,
      "Se": 603,
      "Con": 604,
      "Br": 605,
      "ai": 606,
      "omet": 607,
      "ake": 608,
      "my": 609,
      "station": 610,
      "ister": 611,
      "II": 612,
      "larg": 613,
      "coun": 614,
      "cap": 615,
      "village": 616,
      "uss": 617,
      "ower": 618,
      "cond": 619,
      "ootball": 620,
      "Gr": 621,
      "oup": 622,
      "through": 623,
      "present": 624,
      "ope": 625,
      "Reg": 626,
      "rent": 627,
      "az": 628,
      "ict": 629,
      "ics": 630,
      "ities": 631,
      "var": 632,
      "ug": 633,
      "2010": 634,
      "ley": 635,
      "Car": 636,
      "ern": 637,
      "ik": 638,
      "10": 639,
      "ft": 640,
      "ext": 641,
      "son": 642,
      "pos": 643,
      "prof": 644,
      "fil": 645,
      "enn": 646,
      "ff": 647,
      "15": 648,
      "ople": 649,
      "Pro": 650,
      "198": 651,
      "sev": 652,
      "mod": 653,
      "British": 654,
      "fe": 655,
      "Sc": 656,
      "road": 657,
      "census": 658,
      "served": 659,
      "oman": 660,
      "near": 661,
      "ier": 662,
      "ret": 663,
      "high": 664,
      "inn": 665,
      "ision": 666,
      "inter": 667,
      "16": 668,
      "day": 669,
      "cess": 670,
      "ve": 671,
      "municipality": 672,
      "ros": 673,
      "this": 674,
      "tra": 675,
      "River": 676,
      "197": 677,
      "astern": 678,
      "igin": 679,
      "ash": 680,
      "De": 681,
      "small": 682,
      "anc": 683,
      "more": 684,
      "sur": 685,
      "met": 686,
      "current": 687,
      "sk": 688,
      "Eur": 689,
      "ban": 690,
      "bur": 691,
      "ks": 692,
      "ician": 693,
      "ital": 694,
      "University": 695,
      "region": 696,
      "num": 697,
      "ix": 698,
      "dr": 699,
      "194": 700,
      "196": 701,
      "ium": 702,
      "writ": 703,
      "stem": 704,
      "until": 705,
      "ale": 706,
      "ward": 707,
      "since": 708,
      "District": 709,
      "ajor": 710,
      "about": 711,
      "let": 712,
      "line": 713,
      "City": 714,
      "bl": 715,
      "rop": 716,
      "sing": 717,
      "Pl": 718,
      "try": 719,
      "por": 720,
      "rench": 721,
      "Cent": 722,
      "mus": 723,
      "such": 724,
      "reat": 725,
      "0s": 726,
      "French": 727,
      "sou": 728,
      "12": 729,
      "France": 730,
      "ons": 731,
      "German": 732,
      "mar": 733,
      "ized": 734,
      "Canad": 735,
      "oy": 736,
      "overn": 737,
      "ings": 738,
      "England": 739,
      "time": 740,
      "member": 741,
      "profess": 742,
      "offic": 743,
      "years": 744,
      "Par": 745,
      "football": 746,
      "reet": 747,
      "Air": 748,
      "fin": 749,
      "three": 750,
      "devel": 751,
      "lish": 752,
      "istr": 753,
      "mark": 754,
      "where": 755,
      "Ph": 756,
      "including": 757,
      "ating": 758,
      "long": 759,
      "West": 760,
      "ures": 761,
      "film": 762,
      "ular": 763,
      "Sw": 764,
      "ork": 765,
      "dec": 766,
      "Europe": 767,
      "itect": 768,
      "develop": 769,
      "based": 770,
      "Ital": 771,
      "ollow": 772,
      "origin": 773,
      "omin": 774,
      "eries": 775,
      "Joh": 776,
      "people": 777,
      "some": 778,
      "when": 779,
      "ield": 780,
      "largest": 781,
      "ick": 782,
      "call": 783,
      "than": 784,
      "itu": 785,
      "partment": 786,
      "km": 787,
      "east": 788,
      "ep": 789,
      "Russ": 790,
      "head": 791,
      "ient": 792,
      "class": 793,
      "early": 794,
      "ountain": 795,
      "she": 796,
      "Cal": 797,
      "idae": 798,
      "ever": 799,
      "overnment": 800,
      "set": 801,
      "four": 802,
      "colle": 803,
      "ered": 804,
      "ists": 805,
      "Ge": 806,
      "elect": 807,
      "Pol": 808,
      "King": 809,
      "pain": 810,
      "ont": 811,
      "within": 812,
      "group": 813,
      "organ": 814,
      "13": 815,
      "produc": 816,
      "000": 817,
      "played": 818,
      "ife": 819,
      "York": 820,
      "Its": 821,
      "world": 822,
      "Cl": 823,
      "architect": 824,
      "western": 825,
      "second": 826,
      "14": 827,
      "became": 828,
      "ague": 829,
      "lands": 830,
      "Park": 831,
      "195": 832,
      "railway": 833,
      "fore": 834,
      "ism": 835,
      "named": 836,
      "ase": 837,
      "ternational": 838,
      "seas": 839,
      "emb": 840,
      "ax": 841,
      "lo": 842,
      "genus": 843,
      "ird": 844,
      "Or": 845,
      "now": 846,
      "ual": 847,
      "Histor": 848,
      "uction": 849,
      "ator": 850,
      "bus": 851,
      "irect": 852,
      "open": 853,
      "soc": 854,
      "ants": 855,
      "ement": 856,
      "At": 857,
      "useum": 858,
      "peri": 859,
      "mov": 860,
      "made": 861,
      "follow": 862,
      "que": 863,
      "ially": 864,
      "Her": 865,
      "called": 866,
      "ord": 867,
      "Indian": 868,
      "mp": 869,
      "row": 870,
      "major": 871,
      "English": 872,
      "ution": 873,
      "ys": 874,
      "uary": 875,
      "193": 876,
      "team": 877,
      "new": 878,
      "Be": 879,
      "dep": 880,
      "Bar": 881,
      "ung": 882,
      "iam": 883,
      "ose": 884,
      "system": 885,
      "raft": 886,
      "app": 887,
      "sport": 888,
      "struct": 889,
      "State": 890,
      "John": 891,
      "war": 892,
      "national": 893,
      "Roman": 894,
      "Australia": 895,
      "later": 896,
      "listed": 897,
      "lead": 898,
      "ful": 899,
      "They": 900,
      "ross": 901,
      "school": 902,
      "ived": 903,
      "stud": 904,
      "ron": 905,
      "both": 906,
      "being": 907,
      "ham": 908,
      "la": 909,
      "bel": 910,
      "though": 911,
      "stit": 912,
      "inv": 913,
      "itary": 914,
      "ject": 915,
      "they": 916,
      "kil": 917,
      "ck": 918,
      "history": 919,
      "dom": 920,
      "several": 921,
      "cult": 922,
      "Army": 923,
      "ters": 924,
      "Gu": 925,
      "imes": 926,
      "ane": 927,
      "ically": 928,
      "sign": 929,
      "Germany": 930,
      "professional": 931,
      "ives": 932,
      "Co": 933,
      "led": 934,
      "water": 935,
      "Ne": 936,
      "Rail": 937,
      "rest": 938,
      "Min": 939,
      "und": 940,
      "historic": 941,
      "oth": 942,
      "India": 943,
      "aces": 944,
      "Tr": 945,
      "kilomet": 946,
      "ref": 947,
      "Cor": 948,
      "East": 949,
      "char": 950,
      "Ad": 951,
      "estab": 952,
      "church": 953,
      "Afr": 954,
      "along": 955,
      "large": 956,
      "Ed": 957,
      "fact": 958,
      "avy": 959,
      "ivil": 960,
      "ames": 961,
      "contr": 962,
      "place": 963,
      "ene": 964,
      "aut": 965,
      "idge": 966,
      "ise": 967,
      "ines": 968,
      "side": 969,
      "raph": 970,
      "urn": 971,
      "arm": 972,
      "shire": 973,
      "series": 974,
      "direct": 975,
      "atic": 976,
      "field": 977,
      "thor": 978,
      "number": 979,
      "hy": 980,
      "ministr": 981,
      "ock": 982,
      "house": 983,
      "best": 984,
      "run": 985,
      "add": 986,
      "band": 987,
      "yal": 988,
      "ustr": 989,
      "Geor": 990,
      "ott": 991,
      "politician": 992,
      "ington": 993,
      "ery": 994,
      "ually": 995,
      "government": 996,
      "currently": 997,
      "mill": 998,
      "held": 999,
      "Man": 1000,
      "county": 1001,
      "Church": 1002,
      "no": 1003,
      "House": 1004,
      "northern": 1005,
      "ven": 1006,
      "San": 1007,
      "then": 1008,
      "inc": 1009,
      "Street": 1010,
      "central": 1011,
      "ille": 1012,
      "trans": 1013,
      "there": 1014,
      "company": 1015,
      "may": 1016,
      "around": 1017,
      "Chr": 1018,
      "ature": 1019,
      "country": 1020,
      "sup": 1021,
      "els": 1022,
      "season": 1023,
      "Fl": 1024,
      "Bl": 1025,
      "nia": 1026,
      "miles": 1027,
      "Wal": 1028,
      "onom": 1029,
      "trad": 1030,
      "May": 1031,
      "period": 1032,
      "Ac": 1033,
      "ild": 1034,
      "lex": 1035,
      "192": 1036,
      "formed": 1037,
      "ology": 1038,
      "cer": 1039,
      "tain": 1040,
      "recor": 1041,
      "start": 1042,
      "bre": 1043,
      "ka": 1044,
      "Will": 1045,
      "US": 1046,
      "League": 1047,
      "sty": 1048,
      "hen": 1049,
      "ately": 1050,
      "On": 1051,
      "van": 1052,
      "leg": 1053,
      "department": 1054,
      "import": 1055,
      "Historic": 1056,
      "ipp": 1057,
      "founded": 1058,
      "southern": 1059,
      "yn": 1060,
      "ission": 1061,
      "ze": 1062,
      "omen": 1063,
      "general": 1064,
      "ampion": 1065,
      "Gre": 1066,
      "remain": 1067,
      "resident": 1068,
      "ony": 1069,
      "contain": 1070,
      "dif": 1071,
      "America": 1072,
      "ior": 1073,
      "capital": 1074,
      "El": 1075,
      "11": 1076,
      "often": 1077,
      "ste": 1078,
      "election": 1079,
      "lished": 1080,
      "une": 1081,
      "itt": 1082,
      "back": 1083,
      "common": 1084,
      "gl": 1085,
      "30": 1086,
      "enc": 1087,
      "them": 1088,
      "ford": 1089,
      "iation": 1090,
      "div": 1091,
      "key": 1092,
      "seat": 1093,
      "50": 1094,
      "ondon": 1095,
      "sim": 1096,
      "won": 1097,
      "aur": 1098,
      "so": 1099,
      "military": 1100,
      "burg": 1101,
      "contin": 1102,
      "consid": 1103,
      "pers": 1104,
      "park": 1105,
      "London": 1106,
      "hab": 1107,
      "administr": 1108,
      "His": 1109,
      "life": 1110,
      "aster": 1111,
      "press": 1112,
      "tal": 1113,
      "term": 1114,
      "following": 1115,
      "squ": 1116,
      "suc": 1117,
      "Bel": 1118,
      "chn": 1119,
      "attle": 1120,
      "Phil": 1121,
      "ices": 1122,
      "Nov": 1123,
      "cover": 1124,
      "ages": 1125,
      "before": 1126,
      "Val": 1127,
      "ico": 1128,
      "writer": 1129,
      "mb": 1130,
      "Gen": 1131,
      "ifor": 1132,
      "esh": 1133,
      "Republic": 1134,
      "ca": 1135,
      "last": 1136,
      "Que": 1137,
      "Califor": 1138,
      "ased": 1139,
      "theast": 1140,
      "eastern": 1141,
      "Comp": 1142,
      "gu": 1143,
      "ief": 1144,
      "gy": 1145,
      "home": 1146,
      "do": 1147,
      "vis": 1148,
      "California": 1149,
      "dist": 1150,
      "ana": 1151,
      "various": 1152,
      "established": 1153,
      "High": 1154,
      "ple": 1155,
      "local": 1156,
      "pass": 1157,
      "ude": 1158,
      "operated": 1159,
      "Pal": 1160,
      "School": 1161,
      "anish": 1162,
      "ama": 1163,
      "uk": 1164,
      "Part": 1165,
      "go": 1166,
      "bert": 1167,
      "Mex": 1168,
      "record": 1169,
      "ides": 1170,
      "ould": 1171,
      "men": 1172,
      "ible": 1173,
      "ster": 1174,
      "oss": 1175,
      "Jan": 1176,
      "Italian": 1177,
      "descr": 1178,
      "wood": 1179,
      "mid": 1180,
      "China": 1181,
      "iev": 1182,
      "190": 1183,
      "music": 1184,
      "lev": 1185,
      "ones": 1186,
      "Har": 1187,
      "2011": 1188,
      "Char": 1189,
      "refer": 1190,
      "Canada": 1191,
      "depend": 1192,
      "hel": 1193,
      "compet": 1194,
      "alt": 1195,
      "care": 1196,
      "iety": 1197,
      "ner": 1198,
      "late": 1199,
      "Port": 1200,
      "site": 1201,
      "includes": 1202,
      "commune": 1203,
      "born": 1204,
      "uch": 1205,
      "buildings": 1206,
      "Sy": 1207,
      "stitut": 1208,
      "tradition": 1209,
      "Wh": 1210,
      "Bo": 1211,
      "hum": 1212,
      "province": 1213,
      "service": 1214,
      "lect": 1215,
      "ches": 1216,
      "memb": 1217,
      "designed": 1218,
      "situ": 1219,
      "William": 1220,
      "\"\",": 1221,
      "nect": 1222,
      "prim": 1223,
      "Christ": 1224,
      "point": 1225,
      "produced": 1226,
      "represent": 1227,
      "eter": 1228,
      "Af": 1229,
      "Royal": 1230,
      "Railway": 1231,
      "ibut": 1232,
      "ago": 1233,
      "flu": 1234,
      "appear": 1235,
      "sl": 1236,
      "Mon": 1237,
      "craft": 1238,
      "Ju": 1239,
      "popular": 1240,
      "author": 1241,
      "olic": 1242,
      "Ex": 1243,
      "top": 1244,
      "stand": 1245,
      "community": 1246,
      "Ang": 1247,
      "tw": 1248,
      "artist": 1249,
      "ival": 1250,
      "differ": 1251,
      "king": 1252,
      "Met": 1253,
      "oute": 1254,
      "important": 1255,
      "ired": 1256,
      "rap": 1257,
      "resp": 1258,
      "gust": 1259,
      "25": 1260,
      "There": 1261,
      "189": 1262,
      "aced": 1263,
      "Australian": 1264,
      "ather": 1265,
      "Navy": 1266,
      "while": 1267,
      "describ": 1268,
      "era": 1269,
      "Central": 1270,
      "Prov": 1271,
      "vi": 1272,
      "iness": 1273,
      "modern": 1274,
      "Town": 1275,
      "ended": 1276,
      "coast": 1277,
      "river": 1278,
      "2016": 1279,
      "round": 1280,
      "Te": 1281,
      "Pe": 1282,
      "Fr": 1283,
      "appro": 1284,
      "tem": 1285,
      "Bra": 1286,
      "August": 1287,
      "ues": 1288,
      "rec": 1289,
      "mountain": 1290,
      "situated": 1291,
      "members": 1292,
      "ified": 1293,
      "include": 1294,
      "Dec": 1295,
      "Japanese": 1296,
      "ges": 1297,
      "bar": 1298,
      "level": 1299,
      "Russian": 1300,
      "Ber": 1301,
      "quar": 1302,
      "type": 1303,
      "Med": 1304,
      "Oc": 1305,
      "parish": 1306,
      "train": 1307,
      "island": 1308,
      "cept": 1309,
      "law": 1310,
      "ships": 1311,
      "bro": 1312,
      "considered": 1313,
      "ropical": 1314,
      "compos": 1315,
      "Sec": 1316,
      "ounc": 1317,
      "ility": 1318,
      "player": 1319,
      "range": 1320,
      "reek": 1321,
      "power": 1322,
      "aking": 1323,
      "cast": 1324,
      "Western": 1325,
      "kilometres": 1326,
      "center": 1327,
      "val": 1328,
      "commonly": 1329,
      "orn": 1330,
      "ows": 1331,
      "Per": 1332,
      "Kingdom": 1333,
      "ted": 1334,
      "Mal": 1335,
      "bia": 1336,
      "ula": 1337,
      "All": 1338,
      "again": 1339,
      "ize": 1340,
      "ata": 1341,
      "camp": 1342,
      "activ": 1343,
      "plant": 1344,
      "rain": 1345,
      "Me": 1346,
      "ufact": 1347,
      "Am": 1348,
      "success": 1349,
      "cal": 1350,
      "ments": 1351,
      "owned": 1352,
      "vol": 1353,
      "works": 1354,
      "ps": 1355,
      "ization": 1356,
      "gre": 1357,
      "elf": 1358,
      "gram": 1359,
      "post": 1360,
      "Comm": 1361,
      "right": 1362,
      "forms": 1363,
      "book": 1364,
      "Sain": 1365,
      "six": 1366,
      "iving": 1367,
      "ped": 1368,
      "civil": 1369,
      "Register": 1370,
      "2019": 1371,
      "European": 1372,
      "Cath": 1373,
      "osp": 1374,
      "ney": 1375,
      "rad": 1376,
      "gar": 1377,
      "habit": 1378,
      "engine": 1379,
      "En": 1380,
      "pur": 1381,
      "sett": 1382,
      "bi": 1383,
      "ided": 1384,
      "tour": 1385,
      "vent": 1386,
      "2015": 1387,
      "style": 1388,
      "Mun": 1389,
      "January": 1390,
      "active": 1391,
      "hes": 1392,
      "tar": 1393,
      "ma": 1394,
      "ised": 1395,
      "def": 1396,
      "ument": 1397,
      "Line": 1398,
      "xim": 1399,
      "Lake": 1400,
      "Island": 1401,
      "these": 1402,
      "jo": 1403,
      "ket": 1404,
      "Party": 1405,
      "described": 1406,
      "international": 1407,
      "Canadian": 1408,
      "nat": 1409,
      "vers": 1410,
      "manufact": 1411,
      "rock": 1412,
      "ively": 1413,
      "cle": 1414,
      "like": 1415,
      "light": 1416,
      "188": 1417,
      "total": 1418,
      "down": 1419,
      "occur": 1420,
      "ank": 1421,
      "24": 1422,
      "sea": 1423,
      "General": 1424,
      "iment": 1425,
      "angu": 1426,
      "plays": 1427,
      "2014": 1428,
      "oto": 1429,
      "neigh": 1430,
      "President": 1431,
      "museum": 1432,
      "iter": 1433,
      "industr": 1434,
      "zer": 1435,
      "na": 1436,
      "adem": 1437,
      "yl": 1438,
      "administrative": 1439,
      "olv": 1440,
      "Road": 1441,
      "different": 1442,
      "tit": 1443,
      "tober": 1444,
      "Hol": 1445,
      "business": 1446,
      "ling": 1447,
      "2017": 1448,
      "ured": 1449,
      "educ": 1450,
      "October": 1451,
      "Gl": 1452,
      "Su": 1453,
      "hig": 1454,
      "order": 1455,
      "ological": 1456,
      "prot": 1457,
      "ove": 1458,
      "special": 1459,
      "five": 1460,
      "hous": 1461,
      "November": 1462,
      "ause": 1463,
      "ground": 1464,
      "award": 1465,
      "uck": 1466,
      "ats": 1467,
      "developed": 1468,
      "non": 1469,
      "ament": 1470,
      "ville": 1471,
      "Union": 1472,
      "Catholic": 1473,
      "Res": 1474,
      "ris": 1475,
      "omot": 1476,
      "Spanish": 1477,
      "stor": 1478,
      "Mid": 1479,
      "ape": 1480,
      "Sou": 1481,
      "gin": 1482,
      "International": 1483,
      "rod": 1484,
      "La": 1485,
      "Company": 1486,
      "19th": 1487,
      "Ab": 1488,
      "Sch": 1489,
      "Lou": 1490,
      "cour": 1491,
      "June": 1492,
      "2012": 1493,
      "created": 1494,
      "painter": 1495,
      "career": 1496,
      "charac": 1497,
      "native": 1498,
      "ru": 1499,
      "After": 1500,
      "Wash": 1501,
      "Mich": 1502,
      "mult": 1503,
      "assoc": 1504,
      "186": 1505,
      "role": 1506,
      "connect": 1507,
      "Colle": 1508,
      "tropical": 1509,
      "mot": 1510,
      "feat": 1511,
      "ida": 1512,
      "2018": 1513,
      "Bay": 1514,
      "corpor": 1515,
      "Africa": 1516,
      "areas": 1517,
      "third": 1518,
      "Swed": 1519,
      "2000": 1520,
      "ander": 1521,
      "And": 1522,
      "ger": 1523,
      "ox": 1524,
      "21": 1525,
      "typ": 1526,
      "began": 1527,
      "alth": 1528,
      "net": 1529,
      "July": 1530,
      "ars": 1531,
      "ena": 1532,
      "clos": 1533,
      "lim": 1534,
      "unction": 1535,
      "ites": 1536,
      "rele": 1537,
      "Fe": 1538,
      "him": 1539,
      "Station": 1540,
      "priv": 1541,
      "bod": 1542,
      "Flor": 1543,
      "rac": 1544,
      "Tur": 1545,
      "aircraft": 1546,
      "iated": 1547,
      "Museum": 1548,
      "fac": 1549,
      "border": 1550,
      "club": 1551,
      "cycl": 1552,
      "included": 1553,
      "akes": 1554,
      "position": 1555,
      "Sept": 1556,
      "approxim": 1557,
      "ole": 1558,
      "Washington": 1559,
      "wide": 1560,
      "2013": 1561,
      "Province": 1562,
      "pat": 1563,
      "opened": 1564,
      "March": 1565,
      "40": 1566,
      "political": 1567,
      "Apr": 1568,
      "short": 1569,
      "telev": 1570,
      "ged": 1571,
      "television": 1572,
      "April": 1573,
      "cording": 1574,
      "hood": 1575,
      "Ear": 1576,
      "centre": 1577,
      "September": 1578,
      "langu": 1579,
      "techn": 1580,
      "Ser": 1581,
      "sol": 1582,
      "earch": 1583,
      "among": 1584,
      "emoc": 1585,
      "song": 1586,
      "Saint": 1587,
      "same": 1588,
      "Great": 1589,
      "Mexico": 1590,
      "hal": 1591,
      "million": 1592,
      "single": 1593,
      "Force": 1594,
      "Mo": 1595,
      "chan": 1596,
      "December": 1597,
      "Oly": 1598,
      "yr": 1599,
      "22": 1600,
      "Chin": 1601,
      "di": 1602,
      "designated": 1603,
      "ogn": 1604,
      "less": 1605,
      "vious": 1606,
      "Ze": 1607,
      "comb": 1608,
      "Li": 1609,
      "uel": 1610,
      "ets": 1611,
      "actor": 1612,
      "Champion": 1613,
      "Olymp": 1614,
      "Sl": 1615,
      "den": 1616,
      "aul": 1617,
      "Art": 1618,
      "Scot": 1619,
      "dle": 1620,
      "ograph": 1621,
      "Metro": 1622,
      "Bro": 1623,
      "person": 1624,
      "Che": 1625,
      "influ": 1626,
      "approximately": 1627,
      "ave": 1628,
      "Braz": 1629,
      "square": 1630,
      "occ": 1631,
      "College": 1632,
      "\"\".": 1633,
      "20th": 1634,
      "Pac": 1635,
      "Penn": 1636,
      "Soc": 1637,
      "187": 1638,
      "owever": 1639,
      "each": 1640,
      "women": 1641,
      "alist": 1642,
      "Wales": 1643,
      "gian": 1644,
      "George": 1645,
      "Rev": 1646,
      "count": 1647,
      "ara": 1648,
      "Brazil": 1649,
      "development": 1650,
      "sold": 1651,
      "very": 1652,
      "ble": 1653,
      "notable": 1654,
      "took": 1655,
      "equ": 1656,
      "program": 1657,
      "overnor": 1658,
      "syl": 1659,
      "aff": 1660,
      "unit": 1661,
      "Cast": 1662,
      "Italy": 1663,
      "event": 1664,
      "fish": 1665,
      "death": 1666,
      "support": 1667,
      "ien": 1668,
      "due": 1669,
      "Mor": 1670,
      "manag": 1671,
      "23": 1672,
      "politan": 1673,
      "Mountain": 1674,
      "tress": 1675,
      "hand": 1676,
      "Places": 1677,
      "Grand": 1678,
      "ino": 1679,
      "bour": 1680,
      "eff": 1681,
      "lies": 1682,
      "Russia": 1683,
      "ined": 1684,
      "ected": 1685,
      "ering": 1686,
      "arr": 1687,
      "aland": 1688,
      "ience": 1689,
      "tries": 1690,
      "alb": 1691,
      "contains": 1692,
      "requ": 1693,
      "icular": 1694,
      "Region": 1695,
      "Christian": 1696,
      "Vir": 1697,
      "sylvan": 1698,
      "vir": 1699,
      "Tex": 1700,
      "aim": 1701,
      "Mary": 1702,
      "result": 1703,
      "usually": 1704,
      "struction": 1705,
      "Hill": 1706,
      "Counc": 1707,
      "26": 1708,
      "against": 1709,
      "inct": 1710,
      "Jose": 1711,
      "2009": 1712,
      "ha": 1713,
      "across": 1714,
      "Hen": 1715,
      "inning": 1716,
      "esp": 1717,
      "stat": 1718,
      "ictor": 1719,
      "ummer": 1720,
      "official": 1721,
      "sylvania": 1722,
      "originally": 1723,
      "28": 1724,
      "exist": 1725,
      "econom": 1726,
      "spe": 1727,
      "ometimes": 1728,
      "ota": 1729,
      "Pacific": 1730,
      "formation": 1731,
      "ificant": 1732,
      "ays": 1733,
      "singer": 1734,
      "just": 1735,
      "cu": 1736,
      "historical": 1737,
      "Chinese": 1738,
      "ona": 1739,
      "Miss": 1740,
      "Sen": 1741,
      "Council": 1742,
      "urban": 1743,
      "venue": 1744,
      "recogn": 1745,
      "hol": 1746,
      "published": 1747,
      "ler": 1748,
      "rece": 1749,
      "urb": 1750,
      "grow": 1751,
      "tran": 1752,
      "James": 1753,
      "emocr": 1754,
      "Atl": 1755,
      "omb": 1756,
      "Louis": 1757,
      "previous": 1758,
      "base": 1759,
      "Minister": 1760,
      "utch": 1761,
      "significant": 1762,
      "Kore": 1763,
      "27": 1764,
      "countries": 1765,
      "pris": 1766,
      "section": 1767,
      "placed": 1768,
      "Mil": 1769,
      "2008": 1770,
      "Spain": 1771,
      "ij": 1772,
      "ilar": 1773,
      "Div": 1774,
      "independ": 1775,
      "president": 1776,
      "Tran": 1777,
      "nd": 1778,
      "berg": 1779,
      "character": 1780,
      "Lu": 1781,
      "paint": 1782,
      "ests": 1783,
      "dest": 1784,
      "Ter": 1785,
      "action": 1786,
      "hest": 1787,
      "ean": 1788,
      "Hall": 1789,
      "Texas": 1790,
      "ius": 1791,
      "Sal": 1792,
      "har": 1793,
      "bridge": 1794,
      "production": 1795,
      "hic": 1796,
      "sometimes": 1797,
      "cis": 1798,
      "Cam": 1799,
      "exp": 1800,
      "college": 1801,
      "arily": 1802,
      "ning": 1803,
      "wards": 1804,
      "eration": 1805,
      "aval": 1806,
      "oldest": 1807,
      "Kar": 1808,
      "private": 1809,
      "resid": 1810,
      "architecture": 1811,
      "Atlant": 1812,
      "Asia": 1813,
      "Land": 1814,
      "belong": 1815,
      "BC": 1816,
      "put": 1817,
      "original": 1818,
      "Zealand": 1819,
      "sen": 1820,
      "Im": 1821,
      "Emp": 1822,
      "Pennsylvania": 1823,
      "Arch": 1824,
      "incorpor": 1825,
      "Em": 1826,
      "Il": 1827,
      "liament": 1828,
      "hon": 1829,
      "events": 1830,
      "100": 1831,
      "fed": 1832,
      "Mont": 1833,
      "ought": 1834,
      "host": 1835,
      "First": 1836,
      "bird": 1837,
      "parts": 1838,
      "famous": 1839,
      "ston": 1840,
      "These": 1841,
      "herit": 1842,
      "dam": 1843,
      "ued": 1844,
      "Charles": 1845,
      "still": 1846,
      "Dutch": 1847,
      "ancient": 1848,
      "ulpt": 1849,
      "sil": 1850,
      "fig": 1851,
      "ently": 1852,
      "del": 1853,
      "relig": 1854,
      "Dr": 1855,
      "merc": 1856,
      "natural": 1857,
      "Dav": 1858,
      "throughout": 1859,
      "ength": 1860,
      "olution": 1861,
      "thod": 1862,
      "particular": 1863,
      "released": 1864,
      "Virgin": 1865,
      "hip": 1866,
      "using": 1867,
      "Empire": 1868,
      "mat": 1869,
      "footballer": 1870,
      "referred": 1871,
      "Valley": 1872,
      "ecture": 1873,
      "times": 1874,
      "ibr": 1875,
      "street": 1876,
      "addition": 1877,
      "great": 1878,
      "rea": 1879,
      "Philipp": 1880,
      "sn": 1881,
      "nic": 1882,
      "emor": 1883,
      "Thom": 1884,
      "Hung": 1885,
      "Mus": 1886,
      "proper": 1887,
      "Democr": 1888,
      "ink": 1889,
      "Jer": 1890,
      "low": 1891,
      "complet": 1892,
      "Mass": 1893,
      "grad": 1894,
      "services": 1895,
      "similar": 1896,
      "introd": 1897,
      "Rh": 1898,
      "anim": 1899,
      "Ire": 1900,
      "ians": 1901,
      "social": 1902,
      "sculpt": 1903,
      "Bas": 1904,
      "ency": 1905,
      "Lat": 1906,
      "Ireland": 1907,
      "Mc": 1908,
      "wid": 1909,
      "2007": 1910,
      "heritage": 1911,
      "mag": 1912,
      "African": 1913,
      "We": 1914,
      "neighbor": 1915,
      "--": 1916,
      "face": 1917,
      "60": 1918,
      "bran": 1919,
      "Victor": 1920,
      "Bur": 1921,
      "Sa": 1922,
      "album": 1923,
      "sw": 1924,
      "Assoc": 1925,
      "iven": 1926,
      "marine": 1927,
      "29": 1928,
      "rab": 1929,
      "highest": 1930,
      "olk": 1931,
      "2006": 1932,
      "whose": 1933,
      "hor": 1934,
      "tt": 1935,
      "vehic": 1936,
      "cell": 1937,
      "child": 1938,
      "rael": 1939,
      "director": 1940,
      "theastern": 1941,
      "itage": 1942,
      "promin": 1943,
      "those": 1944,
      "covered": 1945,
      "Carol": 1946,
      "Municip": 1947,
      "serving": 1948,
      "states": 1949,
      "185": 1950,
      "separ": 1951,
      "fly": 1952,
      "uced": 1953,
      "lab": 1954,
      "gent": 1955,
      "model": 1956,
      "white": 1957,
      "related": 1958,
      "ms": 1959,
      "Sea": 1960,
      "phys": 1961,
      "ald": 1962,
      "NA": 1963,
      "view": 1964,
      "ull": 1965,
      "Common": 1966,
      "highway": 1967,
      "Israel": 1968,
      "process": 1969,
      "ush": 1970,
      "nov": 1971,
      "fort": 1972,
      "see": 1973,
      "Northern": 1974,
      "Febr": 1975,
      "Francis": 1976,
      "\"\".\"": 1977,
      "Qu": 1978,
      "istan": 1979,
      "February": 1980,
      "few": 1981,
      "ored": 1982,
      "traditional": 1983,
      "ado": 1984,
      "Scott": 1985,
      "emic": 1986,
      "Florida": 1987,
      "Heritage": 1988,
      "territ": 1989,
      "seven": 1990,
      "prote": 1991,
      "project": 1992,
      "Mad": 1993,
      "By": 1994,
      "language": 1995,
      "rul": 1996,
      "actress": 1997,
      "arian": 1998,
      "erous": 1999,
      "poet": 2000,
      "iy": 2001,
      "uses": 2002,
      "Oh": 2003,
      "read": 2004,
      "Sov": 2005,
      "cher": 2006,
      "During": 2007,
      "2nd": 2008,
      "ried": 2009,
      "fall": 2010,
      "Battle": 2011,
      "show": 2012,
      "would": 2013,
      "stitute": 2014,
      "No": 2015,
      "Division": 2016,
      "Greek": 2017,
      "ched": 2018,
      "Scotland": 2019,
      "Center": 2020,
      "primarily": 2021,
      "Ir": 2022,
      "ards": 2023,
      "itions": 2024,
      "Soviet": 2025,
      "ei": 2026,
      "ketball": 2027,
      "Paul": 2028,
      "ta": 2029,
      "Since": 2030,
      "Sun": 2031,
      "Township": 2032,
      "complex": 2033,
      "istry": 2034,
      "ois": 2035,
      "hib": 2036,
      "pen": 2037,
      "chang": 2038,
      "market": 2039,
      "body": 2040,
      "graph": 2041,
      "Rich": 2042,
      "Mer": 2043,
      "Polish": 2044,
      "hold": 2045,
      "transport": 2046,
      "Route": 2047,
      "ourn": 2048,
      "wan": 2049,
      "aker": 2050,
      "research": 2051,
      "da": 2052,
      "commerc": 2053,
      "sequ": 2054,
      "involv": 2055,
      "office": 2056,
      "endar": 2057,
      "half": 2058,
      "Department": 2059,
      "Dev": 2060,
      "Tor": 2061,
      "collection": 2062,
      "lived": 2063,
      "cultural": 2064,
      "35": 2065,
      "much": 2066,
      "Ver": 2067,
      "aceae": 2068,
      "Den": 2069,
      "Paris": 2070,
      "Poland": 2071,
      "construction": 2072,
      "Colum": 2073,
      "culture": 2074,
      "Pref": 2075,
      "Red": 2076,
      "Ca": 2077,
      "incorporated": 2078,
      "ique": 2079,
      "title": 2080,
      "Main": 2081,
      "although": 2082,
      "Wil": 2083,
      "inet": 2084,
      "dem": 2085,
      "ivid": 2086,
      "ellow": 2087,
      "municipal": 2088,
      "inhabit": 2089,
      "Cro": 2090,
      "serves": 2091,
      "forces": 2092,
      "Sant": 2093,
      "ops": 2094,
      "having": 2095,
      "mission": 2096,
      "fan": 2097,
      "Bor": 2098,
      "fur": 2099,
      "photo": 2100,
      "ense": 2101,
      "Virginia": 2102,
      "Area": 2103,
      "even": 2104,
      "Queens": 2105,
      "sky": 2106,
      "consists": 2107,
      "rem": 2108,
      "ensive": 2109,
      "because": 2110,
      "eth": 2111,
      "Alex": 2112,
      "ateg": 2113,
      "oon": 2114,
      "hill": 2115,
      "wing": 2116,
      "erve": 2117,
      "Ma": 2118,
      "cities": 2119,
      "calendar": 2120,
      "surround": 2121,
      "ky": 2122,
      "Sir": 2123,
      "Del": 2124,
      "beg": 2125,
      "Fed": 2126,
      "elected": 2127,
      "Squ": 2128,
      "teen": 2129,
      "Civil": 2130,
      "ids": 2131,
      "aves": 2132,
      "Ham": 2133,
      "ada": 2134,
      "Old": 2135,
      "stone": 2136,
      "Ohio": 2137,
      "sey": 2138,
      "formerly": 2139,
      "ockey": 2140,
      "Association": 2141,
      "igan": 2142,
      "1st": 2143,
      "lement": 2144,
      "cir": 2145,
      "mostly": 2146,
      "length": 2147,
      "Prefecture": 2148,
      "get": 2149,
      "iple": 2150,
      "Chic": 2151,
      "ipl": 2152,
      "2004": 2153,
      "Po": 2154,
      "itzer": 2155,
      "Second": 2156,
      "university": 2157,
      "headquar": 2158,
      "founder": 2159,
      "mainly": 2160,
      "making": 2161,
      "Sam": 2162,
      "lines": 2163,
      "itor": 2164,
      "officer": 2165,
      "Henry": 2166,
      "ece": 2167,
      "sch": 2168,
      "Oce": 2169,
      "consist": 2170,
      "colon": 2171,
      "leading": 2172,
      "will": 2173,
      "doc": 2174,
      "Angel": 2175,
      "become": 2176,
      "One": 2177,
      "ends": 2178,
      "worked": 2179,
      "written": 2180,
      "Thomas": 2181,
      "bound": 2182,
      "ping": 2183,
      "init": 2184,
      "80": 2185,
      "Pat": 2186,
      "ey": 2187,
      "hot": 2188,
      "chem": 2189,
      "uan": 2190,
      "Group": 2191,
      "remains": 2192,
      "augh": 2193,
      "ynast": 2194,
      "human": 2195,
      "endemic": 2196,
      "coach": 2197,
      "Robert": 2198,
      "icated": 2199,
      "runs": 2200,
      "Green": 2201,
      "enz": 2202,
      "bank": 2203,
      "individ": 2204,
      "dra": 2205,
      "2005": 2206,
      "associated": 2207,
      "pract": 2208,
      "names": 2209,
      "amed": 2210,
      "Portug": 2211,
      "ploy": 2212,
      "Carolina": 2213,
      "ecut": 2214,
      "flow": 2215,
      "prominent": 2216,
      "Cour": 2217,
      "Academ": 2218,
      "km2": 2219,
      "ansas": 2220,
      "atives": 2221,
      "Inter": 2222,
      "sour": 2223,
      "ola": 2224,
      "anton": 2225,
      "yer": 2226,
      "construct": 2227,
      "structure": 2228,
      ".\"\"": 2229,
      "Southern": 2230,
      "division": 2231,
      "Buil": 2232,
      "ring": 2233,
      "uset": 2234,
      "neighborhood": 2235,
      "attr": 2236,
      "According": 2237,
      "rew": 2238,
      "previously": 2239,
      "isl": 2240,
      "here": 2241,
      "left": 2242,
      "Serv": 2243,
      "champion": 2244,
      "Democratic": 2245,
      "mater": 2246,
      "atre": 2247,
      "commercial": 2248,
      "occup": 2249,
      "With": 2250,
      "estim": 2251,
      "inhabitants": 2252,
      "Massach": 2253,
      "liter": 2254,
      "starting": 2255,
      "usetts": 2256,
      "Massachusetts": 2257,
      "Mart": 2258,
      "overs": 2259,
      "Football": 2260,
      "eds": 2261,
      "Cong": 2262,
      "win": 2263,
      "report": 2264,
      "zech": 2265,
      "above": 2266,
      "what": 2267,
      "Mos": 2268,
      "variety": 2269,
      "northwest": 2270,
      "product": 2271,
      "Czech": 2272,
      "Chicago": 2273,
      "To": 2274,
      "ably": 2275,
      "Uk": 2276,
      "Ocean": 2277,
      "route": 2278,
      "Fort": 2279,
      "Most": 2280,
      "metres": 2281,
      "eck": 2282,
      "houses": 2283,
      "aries": 2284,
      "amb": 2285,
      "fire": 2286,
      "allow": 2287,
      "word": 2288,
      "phil": 2289,
      "ek": 2290,
      "given": 2291,
      "oung": 2292,
      "Du": 2293,
      "movement": 2294,
      "Black": 2295,
      "Atlantic": 2296,
      "track": 2297,
      "oph": 2298,
      "70": 2299,
      "Base": 2300,
      "Don": 2301,
      "Sm": 2302,
      "Mount": 2303,
      "food": 2304,
      "ination": 2305,
      "earli": 2306,
      "cross": 2307,
      "Queensland": 2308,
      "Avenue": 2309,
      "Pen": 2310,
      "borough": 2311,
      "received": 2312,
      "Argent": 2313,
      "Bud": 2314,
      "today": 2315,
      "rol": 2316,
      "Los": 2317,
      "Cap": 2318,
      "Camp": 2319,
      "scient": 2320,
      "igr": 2321,
      "successful": 2322,
      "tor": 2323,
      "atory": 2324,
      "cul": 2325,
      "Municipality": 2326,
      "incre": 2327,
      "expl": 2328,
      "onto": 2329,
      "astr": 2330,
      "ached": 2331,
      "real": 2332,
      "flower": 2333,
      "started": 2334,
      "Parliament": 2335,
      "arts": 2336,
      "turn": 2337,
      "ply": 2338,
      "tall": 2339,
      "ipt": 2340,
      "added": 2341,
      "Coast": 2342,
      "pal": 2343,
      "function": 2344,
      "Governor": 2345,
      "broad": 2346,
      "fir": 2347,
      "Rec": 2348,
      "45": 2349,
      "ream": 2350,
      "recent": 2351,
      "Nether": 2352,
      "Middle": 2353,
      "surv": 2354,
      "Fin": 2355,
      "umb": 2356,
      "refers": 2357,
      "31": 2358,
      "Eastern": 2359,
      "ots": 2360,
      "ecially": 2361,
      "cat": 2362,
      "awa": 2363,
      "especially": 2364,
      "protein": 2365,
      "mal": 2366,
      "poss": 2367,
      "incip": 2368,
      "scr": 2369,
      "race": 2370,
      "adv": 2371,
      "adium": 2372,
      "thed": 2373,
      "urric": 2374,
      "groups": 2375,
      "Switzer": 2376,
      "appl": 2377,
      "Er": 2378,
      "Switzerland": 2379,
      "generally": 2380,
      "iate": 2381,
      "suburb": 2382,
      "close": 2383,
      "self": 2384,
      "journ": 2385,
      "gether": 2386,
      "Slov": 2387,
      "pred": 2388,
      "Highway": 2389,
      "front": 2390,
      "syn": 2391,
      "Georg": 2392,
      "Des": 2393,
      "ded": 2394,
      "gard": 2395,
      "ishop": 2396,
      "aid": 2397,
      "units": 2398,
      "command": 2399,
      "ultural": 2400,
      "Pet": 2401,
      "atter": 2402,
      "ences": 2403,
      "pi": 2404,
      "black": 2405,
      "game": 2406,
      "died": 2407,
      "deg": 2408,
      "Swedish": 2409,
      "Mag": 2410,
      "Up": 2411,
      "material": 2412,
      "Philippines": 2413,
      "introduced": 2414,
      "Major": 2415,
      "fem": 2416,
      "officially": 2417,
      "2020": 2418,
      "ked": 2419,
      "moved": 2420,
      "Cup": 2421,
      "ari": 2422,
      "via": 2423,
      "ael": 2424,
      "stage": 2425,
      "Michigan": 2426,
      "wall": 2427,
      "Loc": 2428,
      "Islands": 2429,
      "Jul": 2430,
      "rid": 2431,
      "Ben": 2432,
      "Sur": 2433,
      "films": 2434,
      "Although": 2435,
      "Ap": 2436,
      "Castle": 2437,
      "father": 2438,
      "Mel": 2439,
      "mi": 2440,
      "ocese": 2441,
      "gun": 2442,
      "represented": 2443,
      "collect": 2444,
      "control": 2445,
      "motor": 2446,
      "36": 2447,
      "uries": 2448,
      "brand": 2449,
      "laun": 2450,
      "aign": 2451,
      "gene": 2452,
      "numerous": 2453,
      "However": 2454,
      "Joseph": 2455,
      "far": 2456,
      "Kh": 2457,
      "oz": 2458,
      "ained": 2459,
      "leader": 2460,
      "ification": 2461,
      "viron": 2462,
      "Some": 2463,
      "ini": 2464,
      "ced": 2465,
      "ione": 2466,
      "lad": 2467,
      "aly": 2468,
      "effect": 2469,
      "Cr": 2470,
      "space": 2471,
      "Gold": 2472,
      "southeast": 2473,
      "bon": 2474,
      "board": 2475,
      "SC": 2476,
      "tow": 2477,
      "2001": 2478,
      "northeast": 2479,
      "full": 2480,
      "Olympics": 2481,
      "least": 2482,
      "Government": 2483,
      "contribut": 2484,
      "Jew": 2485,
      "urer": 2486,
      "Pan": 2487,
      "uments": 2488,
      "ll": 2489,
      "ynasty": 2490,
      "Frank": 2491,
      "oma": 2492,
      "Found": 2493,
      "Off": 2494,
      "Act": 2495,
      "Academy": 2496,
      "passeng": 2497,
      "ala": 2498,
      "iction": 2499,
      "cut": 2500,
      "omer": 2501,
      "Scottish": 2502,
      "Netherlands": 2503,
      "mo": 2504,
      "mit": 2505,
      "Institute": 2506,
      "ender": 2507,
      "ibrary": 2508,
      "basketball": 2509,
      "dev": 2510,
      "aka": 2511,
      "rich": 2512,
      "illed": 2513,
      "constructed": 2514,
      "structures": 2515,
      "48": 2516,
      "tre": 2517,
      "sports": 2518,
      "crit": 2519,
      "mic": 2520,
      "particip": 2521,
      "ert": 2522,
      "ights": 2523,
      "semb": 2524,
      "regional": 2525,
      "From": 2526,
      "ani": 2527,
      "ittle": 2528,
      "Illin": 2529,
      "southwest": 2530,
      "rd": 2531,
      "electric": 2532,
      "castle": 2533,
      "stitution": 2534,
      "plants": 2535,
      "retired": 2536,
      "uter": 2537,
      "students": 2538,
      "termin": 2539,
      "peak": 2540,
      "print": 2541,
      "Rock": 2542,
      "features": 2543,
      "agon": 2544,
      "gold": 2545,
      "Illinois": 2546,
      "size": 2547,
      "religious": 2548,
      "och": 2549,
      "claim": 2550,
      ".,": 2551,
      "2002": 2552,
      "Stat": 2553,
      "perial": 2554,
      "const": 2555,
      "Bang": 2556,
      "lake": 2557,
      "ories": 2558,
      "regions": 2559,
      "either": 2560,
      "ases": 2561,
      "ote": 2562,
      "lete": 2563,
      "mir": 2564,
      "Ag": 2565,
      "sex": 2566,
      "Bu": 2567,
      "cel": 2568,
      "37": 2569,
      "90": 2570,
      "appeared": 2571,
      "anti": 2572,
      "Represent": 2573,
      "Award": 2574,
      "ples": 2575,
      "miss": 2576,
      "Tai": 2577,
      "oming": 2578,
      "ospital": 2579,
      "tree": 2580,
      "eg": 2581,
      "ness": 2582,
      "respons": 2583,
      "independent": 2584,
      "organization": 2585,
      "David": 2586,
      "fif": 2587,
      "III": 2588,
      "Egy": 2589,
      "Metropolitan": 2590,
      "widely": 2591,
      "primary": 2592,
      "thedral": 2593,
      "elev": 2594,
      "Mac": 2595,
      "ming": 2596,
      "ades": 2597,
      "fantry": 2598,
      "uce": 2599,
      "strong": 2600,
      "adron": 2601,
      "Commun": 2602,
      "entire": 2603,
      "others": 2604,
      "airs": 2605,
      "Bridge": 2606,
      "Airport": 2607,
      "alk": 2608,
      "ential": 2609,
      "saw": 2610,
      "change": 2611,
      "Census": 2612,
      "racing": 2613,
      "Mot": 2614,
      "ership": 2615,
      "ending": 2616,
      "lock": 2617,
      "test": 2618,
      "burgh": 2619,
      "sembly": 2620,
      "producer": 2621,
      "ita": 2622,
      "playing": 2623,
      "38": 2624,
      "education": 2625,
      "ves": 2626,
      "ample": 2627,
      "anth": 2628,
      "Iran": 2629,
      "past": 2630,
      "Indones": 2631,
      "Irish": 2632,
      "cop": 2633,
      "completed": 2634,
      "forest": 2635,
      "mont": 2636,
      "aud": 2637,
      "branch": 2638,
      "once": 2639,
      "promot": 2640,
      "Angeles": 2641,
      "Mountains": 2642,
      "defin": 2643,
      "location": 2644,
      "insula": 2645,
      "centuries": 2646,
      "Mark": 2647,
      "sites": 2648,
      "iplom": 2649,
      "autom": 2650,
      "ym": 2651,
      "foc": 2652,
      "network": 2653,
      "recorded": 2654,
      "Dan": 2655,
      "star": 2656,
      "ieval": 2657,
      "emorial": 2658,
      "aken": 2659,
      "Forces": 2660,
      "estival": 2661,
      "surface": 2662,
      "ques": 2663,
      "sect": 2664,
      "Greg": 2665,
      "Sil": 2666,
      "forman": 2667,
      "Revolution": 2668,
      "Ste": 2669,
      "Di": 2670,
      "Many": 2671,
      "ties": 2672,
      "oms": 2673,
      "fourth": 2674,
      "Britain": 2675,
      "ua": 2676,
      "Egypt": 2677,
      "industrial": 2678,
      "minister": 2679,
      "free": 2680,
      "rick": 2681,
      "aper": 2682,
      "eight": 2683,
      "books": 2684,
      "covers": 2685,
      "industry": 2686,
      "rug": 2687,
      "People": 2688,
      "composed": 2689,
      "ett": 2690,
      "settlement": 2691,
      "distr": 2692,
      "kilometers": 2693,
      "brother": 2694,
      "Fil": 2695,
      "yo": 2696,
      "access": 2697,
      "1920": 2698,
      "posed": 2699,
      "live": 2700,
      "party": 2701,
      "igned": 2702,
      "pot": 2703,
      "regon": 2704,
      "ators": 2705,
      "days": 2706,
      "ador": 2707,
      "Ev": 2708,
      "feet": 2709,
      "Hong": 2710,
      "unk": 2711,
      "execut": 2712,
      "ais": 2713,
      "exhib": 2714,
      "aver": 2715,
      "oration": 2716,
      "Viet": 2717,
      "Bul": 2718,
      "Oregon": 2719,
      "Fer": 2720,
      "iana": 2721,
      "Republ": 2722,
      "2003": 2723,
      "vironment": 2724,
      "500": 2725,
      "unn": 2726,
      "Kong": 2727,
      "ils": 2728,
      "ental": 2729,
      "aters": 2730,
      "Sub": 2731,
      "olf": 2732,
      "Tok": 2733,
      "cit": 2734,
      "du": 2735,
      "diplom": 2736,
      "sal": 2737,
      "Georgia": 2738,
      "Edward": 2739,
      "Lin": 2740,
      "super": 2741,
      "chief": 2742,
      "protect": 2743,
      "musician": 2744,
      "Fred": 2745,
      "regular": 2746,
      "continued": 2747,
      "particularly": 2748,
      "roll": 2749,
      "preserv": 2750,
      "iang": 2751,
      "attack": 2752,
      "Arab": 2753,
      "wind": 2754,
      "make": 2755,
      "metro": 2756,
      "icy": 2757,
      "maintain": 2758,
      "children": 2759,
      "ura": 2760,
      "bey": 2761,
      "Society": 2762,
      "iers": 2763,
      "folk": 2764,
      "det": 2765,
      "distinct": 2766,
      "Ott": 2767,
      "systems": 2768,
      "lear": 2769,
      "larger": 2770,
      "Club": 2771,
      "Corps": 2772,
      "competed": 2773,
      "replaced": 2774,
      "multiple": 2775,
      "awarded": 2776,
      "radio": 2777,
      "means": 2778,
      "Summer": 2779,
      "Columbia": 2780,
      "temple": 2781,
      "working": 2782,
      "novel": 2783,
      "Ok": 2784,
      "ya": 2785,
      "ways": 2786,
      "urricane": 2787,
      "mix": 2788,
      "science": 2789,
      "princip": 2790,
      "return": 2791,
      "enced": 2792,
      "compan": 2793,
      "Gar": 2794,
      "ologist": 2795,
      "living": 2796,
      "Tour": 2797,
      "18th": 2798,
      "Pak": 2799,
      "shr": 2800,
      "Str": 2801,
      "green": 2802,
      "mass": 2803,
      "iro": 2804,
      "Cy": 2805,
      "39": 2806,
      "iff": 2807,
      "34": 2808,
      "closed": 2809,
      "inst": 2810,
      "SA": 2811,
      "story": 2812,
      "Vietnam": 2813,
      "districts": 2814,
      "Oper": 2815,
      "bury": 2816,
      "architectural": 2817,
      "Mill": 2818,
      "onia": 2819,
      "together": 2820,
      "Sweden": 2821,
      "Lab": 2822,
      "Mat": 2823,
      "object": 2824,
      "gress": 2825,
      "ison": 2826,
      "aged": 2827,
      "divided": 2828,
      "recognized": 2829,
      "performan": 2830,
      "ams": 2831,
      "employ": 2832,
      "humans": 2833,
      "itar": 2834,
      "Austrian": 2835,
      "fre": 2836,
      "version": 2837,
      "Wis": 2838,
      "rural": 2839,
      "uit": 2840,
      "Kn": 2841,
      "Sing": 2842,
      "Jack": 2843,
      "ano": 2844,
      "1999": 2845,
      "instr": 2846,
      "hem": 2847,
      "force": 2848,
      "territory": 2849,
      "estimated": 2850,
      "remained": 2851,
      "uz": 2852,
      "hard": 2853,
      "White": 2854,
      "shap": 2855,
      "example": 2856,
      "Chief": 2857,
      "bell": 2858,
      "Ke": 2859,
      "Def": 2860,
      "porary": 2861,
      "Leg": 2862,
      "lam": 2863,
      "metal": 2864,
      "final": 2865,
      "Sto": 2866,
      "Championship": 2867,
      "Mah": 2868,
      "moth": 2869,
      "Haw": 2870,
      "ging": 2871,
      "Republican": 2872,
      "elections": 2873,
      "rapher": 2874,
      "3rd": 2875,
      "My": 2876,
      "Tem": 2877,
      "composer": 2878,
      "foss": 2879,
      "brid": 2880,
      "Law": 2881,
      "debut": 2882,
      "Domin": 2883,
      "Earth": 2884,
      "federal": 2885,
      "istical": 2886,
      "imp": 2887,
      "types": 2888,
      "ability": 2889,
      "migr": 2890,
      "Ontar": 2891,
      "Liber": 2892,
      "aya": 2893,
      "avail": 2894,
      "Latin": 2895,
      "Ontario": 2896,
      "66": 2897,
      "49": 2898,
      "ilities": 2899,
      "Taiwan": 2900,
      "Pri": 2901,
      "Peter": 2902,
      "foot": 2903,
      "47": 2904,
      "Court": 2905,
      "acts": 2906,
      "stream": 2907,
      "Service": 2908,
      "Vo": 2909,
      "Creek": 2910,
      "every": 2911,
      "pring": 2912,
      "Sk": 2913,
      "oo": 2914,
      "Queen": 2915,
      "Richard": 2916,
      "dedicated": 2917,
      "empt": 2918,
      "Tod": 2919,
      "Santa": 2920,
      "sum": 2921,
      "TV": 2922,
      "Hy": 2923,
      "oral": 2924,
      "Vill": 2925,
      "ingu": 2926,
      "erson": 2927,
      "flag": 2928,
      "disc": 2929,
      "Tam": 2930,
      "Ha": 2931,
      "ress": 2932,
      "isto": 2933,
      "Mexican": 2934,
      "noted": 2935,
      "ements": 2936,
      "snail": 2937,
      "farm": 2938,
      "Korean": 2939,
      "ropod": 2940,
      "pet": 2941,
      "ulture": 2942,
      "seen": 2943,
      "tered": 2944,
      "ga": 2945,
      "wealth": 2946,
      "enter": 2947,
      "symb": 2948,
      "directed": 2949,
      "oil": 2950,
      "went": 2951,
      "Norway": 2952,
      "majority": 2953,
      "ux": 2954,
      "Ol": 2955,
      "roy": 2956,
      "Jersey": 2957,
      "gra": 2958,
      "township": 2959,
      "subject": 2960,
      "acc": 2961,
      "Kent": 2962,
      "appoint": 2963,
      "atively": 2964,
      "aska": 2965,
      "method": 2966,
      "Forest": 2967,
      "medieval": 2968,
      "iding": 2969,
      "Marine": 2970,
      "din": 2971,
      "cab": 2972,
      "Mod": 2973,
      "Ty": 2974,
      "mouth": 2975,
      "oor": 2976,
      "came": 2977,
      "tic": 2978,
      "Sax": 2979,
      "ati": 2980,
      "canton": 2981,
      "valley": 2982,
      "study": 2983,
      "za": 2984,
      "Class": 2985,
      "conduct": 2986,
      "acy": 2987,
      "Cat": 2988,
      "ask": 2989,
      "Ariz": 2990,
      "hi": 2991,
      "regard": 2992,
      "obile": 2993,
      "ders": 2994,
      "shar": 2995,
      "ora": 2996,
      "Cur": 2997,
      "Lo": 2998,
      "log": 2999,
      "training": 3000,
      "Arizona": 3001,
      "ni": 3002,
      "Prof": 3003,
      "ali": 3004,
      "asc": 3005,
      "emer": 3006,
      "pose": 3007,
      "Victoria": 3008,
      "vo": 3009,
      "Super": 3010,
      "ift": 3011,
      "Bost": 3012,
      "paintings": 3013,
      "month": 3014,
      "Syd": 3015,
      "Budd": 3016,
      "consin": 3017,
      "Wisconsin": 3018,
      "aria": 3019,
      "Gard": 3020,
      "Austria": 3021,
      "annual": 3022,
      "Senate": 3023,
      "Bad": 3024,
      "iger": 3025,
      "games": 3026,
      "46": 3027,
      "anch": 3028,
      "Korea": 3029,
      "Arts": 3030,
      "headquarters": 3031,
      "don": 3032,
      "terms": 3033,
      "campaign": 3034,
      "mile": 3035,
      "wife": 3036,
      "outside": 3037,
      "plan": 3038,
      "compound": 3039,
      "Kr": 3040,
      "twent": 3041,
      "Michael": 3042,
      "manufacturer": 3043,
      "adel": 3044,
      "clim": 3045,
      "ieved": 3046,
      "dynasty": 3047,
      "baseball": 3048,
      "itz": 3049,
      "pression": 3050,
      "available": 3051,
      "ange": 3052,
      "spir": 3053,
      "Sydney": 3054,
      "did": 3055,
      "Os": 3056,
      "Ut": 3057,
      "plat": 3058,
      "ls": 3059,
      "75": 3060,
      "ollus": 3061,
      "Boston": 3062,
      "occurred": 3063,
      "vert": 3064,
      "Wood": 3065,
      "gradu": 3066,
      "mean": 3067,
      "itte": 3068,
      "Sar": 3069,
      "Albert": 3070,
      "Francisco": 3071,
      "ava": 3072,
      "landsc": 3073,
      "actions": 3074,
      "Form": 3075,
      "osaur": 3076,
      "artists": 3077,
      "economic": 3078,
      "istic": 3079,
      "ima": 3080,
      "locomot": 3081,
      "almost": 3082,
      "comed": 3083,
      "inal": 3084,
      "4th": 3085,
      "Women": 3086,
      "ener": 3087,
      "Av": 3088,
      "lem": 3089,
      "islands": 3090,
      "Fre": 3091,
      "inner": 3092,
      "adj": 3093,
      "ella": 3094,
      "pione": 3095,
      "sat": 3096,
      "academ": 3097,
      "Berlin": 3098,
      "typically": 3099,
      "trade": 3100,
      "Ly": 3101,
      "Prince": 3102,
      "Pu": 3103,
      "Wall": 3104,
      "ao": 3105,
      "campus": 3106,
      "reported": 3107,
      "urches": 3108,
      "battle": 3109,
      "Color": 3110,
      "rom": 3111,
      "another": 3112,
      "oe": 3113,
      "ference": 3114,
      "33": 3115,
      "operations": 3116,
      "azz": 3117,
      "ulf": 3118,
      "acher": 3119,
      "Vol": 3120,
      "Gal": 3121,
      "winning": 3122,
      "hom": 3123,
      "ened": 3124,
      "involved": 3125,
      "Lower": 3126,
      "status": 3127,
      "hall": 3128,
      "Imperial": 3129,
      "mollus": 3130,
      "select": 3131,
      "Grade": 3132,
      "ef": 3133,
      "shows": 3134,
      "songwriter": 3135,
      "journalist": 3136,
      "cars": 3137,
      "nar": 3138,
      "next": 3139,
      "capt": 3140,
      "Bern": 3141,
      "itself": 3142,
      "surrounding": 3143,
      "rown": 3144,
      "1992": 3145,
      "Assembly": 3146,
      "Carl": 3147,
      "servation": 3148,
      "ute": 3149,
      "1998": 3150,
      "court": 3151,
      "coastal": 3152,
      "nomin": 3153,
      "nation": 3154,
      "standing": 3155,
      "figure": 3156,
      "portion": 3157,
      "however": 3158,
      "gal": 3159,
      "gener": 3160,
      "orian": 3161,
      "ighth": 3162,
      "ications": 3163,
      "shop": 3164,
      "fought": 3165,
      "Bah": 3166,
      "ski": 3167,
      "professor": 3168,
      "could": 3169,
      "ores": 3170,
      "gest": 3171,
      "180": 3172,
      "young": 3173,
      "olar": 3174,
      "Pakistan": 3175,
      "essor": 3176,
      "beginning": 3177,
      "responsible": 3178,
      "Lad": 3179,
      "invent": 3180,
      "establish": 3181,
      "frequ": 3182,
      "nearby": 3183,
      "cele": 3184,
      "55": 3185,
      "Swiss": 3186,
      "towns": 3187,
      "UK": 3188,
      "Maryland": 3189,
      "Bol": 3190,
      "lost": 3191,
      "CA": 3192,
      "Corpor": 3193,
      "Commission": 3194,
      "ighter": 3195,
      "relations": 3196,
      "ider": 3197,
      "painting": 3198,
      "Lord": 3199,
      "owa": 3200,
      "vehicles": 3201,
      "ands": 3202,
      "gast": 3203,
      "Mic": 3204,
      "launched": 3205,
      "symbol": 3206,
      "lower": 3207,
      "forming": 3208,
      "acent": 3209,
      "apt": 3210,
      "further": 3211,
      "specific": 3212,
      "colour": 3213,
      "iary": 3214,
      "reas": 3215,
      "downtown": 3216,
      "Techn": 3217,
      "Dou": 3218,
      "Mas": 3219,
      "17th": 3220,
      "Colorado": 3221,
      "transl": 3222,
      "32": 3223,
      "Lan": 3224,
      "operation": 3225,
      "ailed": 3226,
      "meas": 3227,
      "dro": 3228,
      "Denmark": 3229,
      "rote": 3230,
      "Guard": 3231,
      "regiment": 3232,
      "ography": 3233,
      "Ros": 3234,
      "woman": 3235,
      "Hel": 3236,
      "mond": 3237,
      "vehicle": 3238,
      "Kansas": 3239,
      "passenger": 3240,
      "compris": 3241,
      "While": 3242,
      "Nat": 3243,
      "exper": 3244,
      "running": 3245,
      "standard": 3246,
      "upon": 3247,
      "according": 3248,
      "separate": 3249,
      "fast": 3250,
      "illustr": 3251,
      "flows": 3252,
      "flowers": 3253,
      "Bre": 3254,
      "Publ": 3255,
      "color": 3256,
      "contem": 3257,
      "guitar": 3258,
      "batt": 3259,
      "Spec": 3260,
      "ser": 3261,
      "ila": 3262,
      "smaller": 3263,
      "property": 3264,
      "Day": 3265,
      "subsequ": 3266,
      "ains": 3267,
      "environment": 3268,
      "nob": 3269,
      "gency": 3270,
      "Maria": 3271,
      "vict": 3272,
      "Statistical": 3273,
      "southwestern": 3274,
      "Baseball": 3275,
      "Minn": 3276,
      "Hungarian": 3277,
      "Jac": 3278,
      "vey": 3279,
      "wa": 3280,
      "Freder": 3281,
      "Alexander": 3282,
      "female": 3283,
      "gall": 3284,
      "stra": 3285,
      "stein": 3286,
      "shaped": 3287,
      "lor": 3288,
      "Hot": 3289,
      "1960s": 3290,
      "categ": 3291,
      "va": 3292,
      "emp": 3293,
      "Mur": 3294,
      "provides": 3295,
      "Mu": 3296,
      "List": 3297,
      "lic": 3298,
      "pit": 3299,
      "Regiment": 3300,
      "thes": 3301,
      "army": 3302,
      "box": 3303,
      "travel": 3304,
      "agen": 3305,
      "blast": 3306,
      "unincorporated": 3307,
      "Cape": 3308,
      "Martin": 3309,
      "villages": 3310,
      "Corporation": 3311,
      "commission": 3312,
      "Today": 3313,
      "desc": 3314,
      "oded": 3315,
      "ker": 3316,
      "ication": 3317,
      "1945": 3318,
      "issance": 3319,
      "isher": 3320,
      "schools": 3321,
      "teams": 3322,
      "Long": 3323,
      "ify": 3324,
      "Pit": 3325,
      "minor": 3326,
      "Turk": 3327,
      "Representatives": 3328,
      "Ru": 3329,
      "weight": 3330,
      "decade": 3331,
      "residential": 3332,
      "bot": 3333,
      "grand": 3334,
      "nine": 3335,
      "better": 3336,
      "65": 3337,
      "Turkey": 3338,
      "raine": 3339,
      "tribut": 3340,
      "rights": 3341,
      "ette": 3342,
      "MS": 3343,
      "Secret": 3344,
      "igen": 3345,
      "Indiana": 3346,
      "Jewish": 3347,
      "heavy": 3348,
      "stan": 3349,
      "date": 3350,
      "leaves": 3351,
      "pan": 3352,
      "Belg": 3353,
      "Congress": 3354,
      "breed": 3355,
      "cow": 3356,
      "iles": 3357,
      "Centre": 3358,
      "Rad": 3359,
      "Water": 3360,
      "assist": 3361,
      "engineer": 3362,
      "ato": 3363,
      "Bank": 3364,
      "look": 3365,
      "Sim": 3366,
      "places": 3367,
      "holds": 3368,
      "butter": 3369,
      "league": 3370,
      "operating": 3371,
      "Ministry": 3372,
      "ned": 3373,
      "musical": 3374,
      "source": 3375,
      "health": 3376,
      "extinct": 3377,
      "roles": 3378,
      "Danish": 3379,
      "vide": 3380,
      "path": 3381,
      "adjacent": 3382,
      "lives": 3383,
      "peror": 3384,
      "without": 3385,
      "good": 3386,
      "Gregorian": 3387,
      "sid": 3388,
      "gastropod": 3389,
      "Balt": 3390,
      "Jean": 3391,
      "Hon": 3392,
      "agric": 3393,
      "Hungary": 3394,
      "bers": 3395,
      "hu": 3396,
      "celebr": 3397,
      "asion": 3398,
      "annel": 3399,
      "highly": 3400,
      "44": 3401,
      "uese": 3402,
      "ja": 3403,
      "treat": 3404,
      "Series": 3405,
      "aches": 3406,
      "fle": 3407,
      "Indonesia": 3408,
      "lay": 3409,
      "Portuguese": 3410,
      "manufactured": 3411,
      "media": 3412,
      "irth": 3413,
      "Anton": 3414,
      "provide": 3415,
      "interest": 3416,
      "oir": 3417,
      "churches": 3418,
      "uous": 3419,
      "Rome": 3420,
      "ouri": 3421,
      "Hind": 3422,
      "System": 3423,
      "protected": 3424,
      "serve": 3425,
      "governor": 3426,
      "Brazilian": 3427,
      "16th": 3428,
      "ports": 3429,
      "invest": 3430,
      "Far": 3431,
      "Hamp": 3432,
      "aps": 3433,
      "Norwe": 3434,
      "discovered": 3435,
      "archae": 3436,
      "Bal": 3437,
      "hockey": 3438,
      "tro": 3439,
      "Championships": 3440,
      "stations": 3441,
      "Norwegian": 3442,
      "worth": 3443,
      "taken": 3444,
      "1996": 3445,
      "Ur": 3446,
      "Minnes": 3447,
      "famil": 3448,
      "belonging": 3449,
      "Year": 3450,
      "scientific": 3451,
      "Sri": 3452,
      "generation": 3453,
      "ki": 3454,
      "Armen": 3455,
      "Minnesota": 3456,
      "ennes": 3457,
      "abe": 3458,
      "Leon": 3459,
      "colonial": 3460,
      "akh": 3461,
      "mand": 3462,
      "Malays": 3463,
      "mach": 3464,
      "179": 3465,
      "cular": 3466,
      "pil": 3467,
      "portra": 3468,
      "Federal": 3469,
      "Their": 3470,
      "individual": 3471,
      "BA": 3472,
      "yellow": 3473,
      "domin": 3474,
      "bron": 3475,
      "lip": 3476,
      "Toronto": 3477,
      "Islam": 3478,
      "Go": 3479,
      "edge": 3480,
      "theatre": 3481,
      "products": 3482,
      "isation": 3483,
      "occurs": 3484,
      "ittee": 3485,
      "Vi": 3486,
      "tim": 3487,
      "operates": 3488,
      "ethnic": 3489,
      "vess": 3490,
      "acqu": 3491,
      "anning": 3492,
      "1994": 3493,
      "Prime": 3494,
      "Ta": 3495,
      "cost": 3496,
      "reach": 3497,
      "does": 3498,
      "come": 3499,
      "honor": 3500,
      "onic": 3501,
      "CB": 3502,
      "Baron": 3503,
      "purpose": 3504,
      "elop": 3505,
      "iences": 3506,
      "metropolitan": 3507,
      "Smith": 3508,
      "simply": 3509,
      "photograph": 3510,
      "1997": 3511,
      "Popul": 3512,
      "lawyer": 3513,
      "illery": 3514,
      "Duke": 3515,
      "sel": 3516,
      "ailand": 3517,
      "Belgium": 3518,
      "medal": 3519,
      "eded": 3520,
      "Lim": 3521,
      "Elect": 3522,
      "temper": 3523,
      "Oblast": 3524,
      "gau": 3525,
      "Located": 3526,
      "companies": 3527,
      "stadium": 3528,
      "Ven": 3529,
      "Thailand": 3530,
      "Territ": 3531,
      "Building": 3532,
      "tle": 3533,
      "designer": 3534,
      "Bus": 3535,
      "foreign": 3536,
      "Gra": 3537,
      "Brown": 3538,
      "ffic": 3539,
      "animals": 3540,
      "Croat": 3541,
      "Star": 3542,
      "steam": 3543,
      "institut": 3544,
      "Upper": 3545,
      "improv": 3546,
      "residents": 3547,
      "dou": 3548,
      "ode": 3549,
      "literature": 3550,
      "except": 3551,
      "northeastern": 3552,
      "performed": 3553,
      "aer": 3554,
      "royal": 3555,
      "Est": 3556,
      "itude": 3557,
      "complete": 3558,
      "wrote": 3559,
      "azine": 3560,
      "Missouri": 3561,
      "wild": 3562,
      "von": 3563,
      "igade": 3564,
      "tax": 3565,
      "tegr": 3566,
      "Olympic": 3567,
      "1991": 3568,
      "phia": 3569,
      "estate": 3570,
      "Cross": 3571,
      "nes": 3572,
      "Tokyo": 3573,
      "neighbour": 3574,
      "anda": 3575,
      "flowering": 3576,
      "attempt": 3577,
      "Peninsula": 3578,
      "ume": 3579,
      "Trans": 3580,
      "mechan": 3581,
      "text": 3582,
      "Ant": 3583,
      "plac": 3584,
      "mel": 3585,
      "Greece": 3586,
      "blue": 3587,
      "thus": 3588,
      "rier": 3589,
      "sculptor": 3590,
      "AR": 3591,
      "hurricane": 3592,
      "mos": 3593,
      "medical": 3594,
      "Over": 3595,
      "stead": 3596,
      "founding": 3597,
      "bishop": 3598,
      "phal": 3599,
      "fiel": 3600,
      "uals": 3601,
      "chair": 3602,
      "ike": 3603,
      "Philadel": 3604,
      "1990": 3605,
      "revol": 3606,
      "signed": 3607,
      "Origin": 3608,
      "philos": 3609,
      "big": 3610,
      "forests": 3611,
      "anal": 3612,
      "voc": 3613,
      "Jes": 3614,
      "artic": 3615,
      "technology": 3616,
      "Philadelphia": 3617,
      "reserv": 3618,
      "bian": 3619,
      "poly": 3620,
      "merged": 3621,
      "Lith": 3622,
      "ales": 3623,
      "provided": 3624,
      "birds": 3625,
      "Ram": 3626,
      "encoded": 3627,
      "Mississ": 3628,
      "speed": 3629,
      "85": 3630,
      "respect": 3631,
      "appointed": 3632,
      "reme": 3633,
      "themat": 3634,
      "distance": 3635,
      "chemical": 3636,
      "capac": 3637,
      "Brook": 3638,
      "una": 3639,
      "Dis": 3640,
      "Beng": 3641,
      "42": 3642,
      "concept": 3643,
      "joined": 3644,
      "ee": 3645,
      "Social": 3646,
      "ios": 3647,
      "southeastern": 3648,
      "executive": 3649,
      "restaur": 3650,
      "trains": 3651,
      "distingu": 3652,
      "itive": 3653,
      "monument": 3654,
      "take": 3655,
      "chester": 3656,
      "oul": 3657,
      "waters": 3658,
      "multi": 3659,
      "Sev": 3660,
      "fielder": 3661,
      "naval": 3662,
      "Corn": 3663,
      "rot": 3664,
      "Cathedral": 3665,
      "Iowa": 3666,
      "certain": 3667,
      "Nap": 3668,
      "shore": 3669,
      "ho": 3670,
      "derived": 3671,
      "horse": 3672,
      "beet": 3673,
      "storm": 3674,
      "obal": 3675,
      "destroy": 3676,
      "mas": 3677,
      "Romania": 3678,
      "Direct": 3679,
      "middle": 3680,
      "Hu": 3681,
      "constitu": 3682,
      "account": 3683,
      "ira": 3684,
      "below": 3685,
      "Ak": 3686,
      "counc": 3687,
      "1970s": 3688,
      "rank": 3689,
      "nature": 3690,
      "onomous": 3691,
      "Asian": 3692,
      "owner": 3693,
      "managed": 3694,
      "dates": 3695,
      "oney": 3696,
      "ias": 3697,
      "7th": 3698,
      "Ox": 3699,
      "excl": 3700,
      "meaning": 3701,
      "istics": 3702,
      "When": 3703,
      "labor": 3704,
      "ram": 3705,
      "contemporary": 3706,
      "Engine": 3707,
      "1995": 3708,
      "performance": 3709,
      "adop": 3710,
      "height": 3711,
      "Hor": 3712,
      "Jr": 3713,
      "lie": 3714,
      "ronic": 3715,
      "transfer": 3716,
      "communities": 3717,
      "Sup": 3718,
      "inces": 3719,
      "elling": 3720,
      "enburg": 3721,
      "defe": 3722,
      "bill": 3723,
      "Inc": 3724,
      "fa": 3725,
      "mm": 3726,
      "dy": 3727,
      "Transport": 3728,
      "hotel": 3729,
      "Square": 3730,
      "CE": 3731,
      "away": 3732,
      "boat": 3733,
      "tower": 3734,
      "41": 3735,
      "script": 3736,
      "exam": 3737,
      "Sol": 3738,
      "competition": 3739,
      "NE": 3740,
      "sand": 3741,
      "Han": 3742,
      "ibuted": 3743,
      "higher": 3744,
      "Bav": 3745,
      "Stud": 3746,
      "loss": 3747,
      "Es": 3748,
      "Dar": 3749,
      "union": 3750,
      "vention": 3751,
      "raised": 3752,
      "lav": 3753,
      "cand": 3754,
      "Ho": 3755,
      "install": 3756,
      "upper": 3757,
      "Ukraine": 3758,
      "SS": 3759,
      "businessman": 3760,
      "Public": 3761,
      "largely": 3762,
      "rical": 3763,
      "een": 3764,
      "meet": 3765,
      "prop": 3766,
      "narrow": 3767,
      "iest": 3768,
      "chap": 3769,
      "daugh": 3770,
      "housing": 3771,
      "1930s": 3772,
      "nuc": 3773,
      "orph": 3774,
      "Mississipp": 3775,
      "northwestern": 3776,
      "seats": 3777,
      "feature": 3778,
      "Luc": 3779,
      "uten": 3780,
      "break": 3781,
      "millenn": 3782,
      "Tom": 3783,
      "1980s": 3784,
      "firm": 3785,
      "information": 3786,
      "Vene": 3787,
      "kee": 3788,
      "acres": 3789,
      "ours": 3790,
      "scre": 3791,
      "activist": 3792,
      "killed": 3793,
      "gas": 3794,
      "Chile": 3795,
      "fifth": 3796,
      "asing": 3797,
      "altern": 3798,
      "ries": 3799,
      "worldwide": 3800,
      "visit": 3801,
      "1993": 3802,
      "6th": 3803,
      "1948": 3804,
      "undred": 3805,
      "Ark": 3806,
      "FC": 3807,
      "Serbia": 3808,
      "creation": 3809,
      "heim": 3810,
      "Ottoman": 3811,
      "bul": 3812,
      "300": 3813,
      "Command": 3814,
      "Down": 3815,
      "Temple": 3816,
      "ibution": 3817,
      "bed": 3818,
      "Nag": 3819,
      "cred": 3820,
      "izes": 3821,
      "Ken": 3822,
      "Bulgar": 3823,
      "Argentina": 3824,
      "silver": 3825,
      "Landmark": 3826,
      "ising": 3827,
      "prehistoric": 3828,
      "Motor": 3829,
      "ophy": 3830,
      "islative": 3831,
      "dens": 3832,
      "unique": 3833,
      "Science": 3834,
      "Secretary": 3835,
      "senior": 3836,
      "nickn": 3837,
      "1950s": 3838,
      "Sloven": 3839,
      "ipment": 3840,
      "studio": 3841,
      "consisting": 3842,
      "earlier": 3843,
      "uni": 3844,
      "week": 3845,
      "nearly": 3846,
      "Rena": 3847,
      "400": 3848,
      "fri": 3849,
      "han": 3850,
      "asse": 3851,
      "rian": 3852,
      "Blue": 3853,
      "document": 3854,
      "organized": 3855,
      "Yorkshire": 3856,
      "Lithuan": 3857,
      "scale": 3858,
      "Lincol": 3859,
      "FA": 3860,
      "Lincoln": 3861,
      "RA": 3862,
      "junction": 3863,
      "profit": 3864,
      "cam": 3865,
      "Fair": 3866,
      "Pre": 3867,
      "Az": 3868,
      "Connect": 3869,
      "Ann": 3870,
      "cin": 3871,
      "Holy": 3872,
      "Sand": 3873,
      "Naz": 3874,
      "families": 3875,
      "ems": 3876,
      "Big": 3877,
      "mann": 3878,
      "reign": 3879,
      "prison": 3880,
      "Israeli": 3881,
      "acre": 3882,
      "fossil": 3883,
      "Just": 3884,
      "historian": 3885,
      "borders": 3886,
      "Educ": 3887,
      "teacher": 3888,
      "conver": 3889,
      "flight": 3890,
      "lan": 3891,
      "95": 3892,
      "stant": 3893,
      "itted": 3894,
      "master": 3895,
      "followed": 3896,
      "course": 3897,
      "draft": 3898,
      "ny": 3899,
      "changes": 3900,
      "Point": 3901,
      "erto": 3902,
      "asp": 3903,
      "je": 3904,
      "wheel": 3905,
      "Gall": 3906,
      "abs": 3907,
      "ko": 3908,
      "ounced": 3909,
      "Era": 3910,
      "USA": 3911,
      "instrument": 3912,
      "Library": 3913,
      "scen": 3914,
      "cycle": 3915,
      "classified": 3916,
      "bin": 3917,
      "dog": 3918,
      "Julian": 3919,
      "medium": 3920,
      "1989": 3921,
      "room": 3922,
      "case": 3923,
      "Kal": 3924,
      "FL": 3925,
      "summer": 3926,
      "Greater": 3927,
      "Pitts": 3928,
      "Sat": 3929,
      "idence": 3930,
      "stop": 3931,
      "Little": 3932,
      "acted": 3933,
      "principal": 3934,
      "Tar": 3935,
      "ba": 3936,
      "anned": 3937,
      "becoming": 3938,
      "declar": 3939,
      "suf": 3940,
      "Quebec": 3941,
      "illa": 3942,
      "ordin": 3943,
      "rule": 3944,
      "preserved": 3945,
      "activities": 3946,
      "til": 3947,
      "decor": 3948,
      "jud": 3949,
      "compon": 3950,
      "Hal": 3951,
      "expand": 3952,
      "iverse": 3953,
      "arms": 3954,
      "limited": 3955,
      "Lie": 3956,
      "confl": 3957,
      "1980": 3958,
      "dish": 3959,
      "elements": 3960,
      "iron": 3961,
      "whom": 3962,
      "changed": 3963,
      "citiz": 3964,
      "table": 3965,
      "video": 3966,
      "engineering": 3967,
      "Diocese": 3968,
      "Der": 3969,
      "Music": 3970,
      "ela": 3971,
      "eland": 3972,
      "earliest": 3973,
      "belongs": 3974,
      "Space": 3975,
      "tallest": 3976,
      "Gulf": 3977,
      "conc": 3978,
      "Peru": 3979,
      "Cub": 3980,
      "Mississippi": 3981,
      "residence": 3982,
      "Palace": 3983,
      "iber": 3984,
      "reached": 3985,
      "aux": 3986,
      "Puerto": 3987,
      "Best": 3988,
      "igenous": 3989,
      "ji": 3990,
      "bat": 3991,
      "oid": 3992,
      "image": 3993,
      "Dam": 3994,
      "tourist": 3995,
      "influence": 3996,
      "connected": 3997,
      "cuis": 3998,
      "ctic": 3999,
      "equipment": 4000,
      "ump": 4001,
      "prob": 4002,
      "rup": 4003,
      "subfamily": 4004,
      "Squadron": 4005,
      "Broad": 4006,
      "locality": 4007,
      "tin": 4008,
      "Pers": 4009,
      "bit": 4010,
      "Hills": 4011,
      "sound": 4012,
      "icut": 4013,
      "capacity": 4014,
      "styles": 4015,
      "academic": 4016,
      "eventually": 4017,
      "Nev": 4018,
      "rog": 4019,
      "arran": 4020,
      "Pier": 4021,
      "Railroad": 4022,
      "twenty": 4023,
      "designations": 4024,
      "Regional": 4025,
      "educational": 4026,
      "Tra": 4027,
      "aki": 4028,
      "rivers": 4029,
      "experi": 4030,
      "Games": 4031,
      "trail": 4032,
      "alion": 4033,
      "FR": 4034,
      "fruit": 4035,
      "Beach": 4036,
      "dig": 4037,
      "ting": 4038,
      "ension": 4039,
      "counties": 4040,
      "Turkish": 4041,
      "integr": 4042,
      "cru": 4043,
      "wrest": 4044,
      "astery": 4045,
      "fresh": 4046,
      "organiz": 4047,
      "caused": 4048,
      "rout": 4049,
      "mayor": 4050,
      "Bir": 4051,
      "shrub": 4052,
      "spent": 4053,
      "drama": 4054,
      "USS": 4055,
      "newsp": 4056,
      "mad": 4057,
      "Ban": 4058,
      "rey": 4059,
      "43": 4060,
      "Post": 4061,
      "Tennes": 4062,
      "sof": 4063,
      "garden": 4064,
      "longest": 4065,
      "elled": 4066,
      "screen": 4067,
      "Banglad": 4068,
      "Sum": 4069,
      "ova": 4070,
      "glass": 4071,
      "odes": 4072,
      "cerem": 4073,
      "thous": 4074,
      "daughter": 4075,
      "Bill": 4076,
      "hydro": 4077,
      "mathemat": 4078,
      "Tennessee": 4079,
      "Both": 4080,
      "airport": 4081,
      "roads": 4082,
      "Bangladesh": 4083,
      "Other": 4084,
      "Bet": 4085,
      "growing": 4086,
      "stock": 4087,
      "ternal": 4088,
      "abeth": 4089,
      "Population": 4090,
      "deter": 4091,
      "bronze": 4092,
      "renamed": 4093,
      "umber": 4094,
      "hou": 4095,
      "isions": 4096,
      "defined": 4097,
      "closely": 4098,
      "micro": 4099,
      "jan": 4100,
      "fund": 4101,
      "Memorial": 4102,
      "dor": 4103,
      "activity": 4104,
      "birth": 4105,
      "thr": 4106,
      "deep": 4107,
      "albums": 4108,
      "classical": 4109,
      "Golden": 4110,
      "express": 4111,
      "ining": 4112,
      "Under": 4113,
      "recently": 4114,
      "Gh": 4115,
      "wich": 4116,
      "energy": 4117,
      "compar": 4118,
      "chain": 4119,
      "How": 4120,
      "76": 4121,
      "Ky": 4122,
      "regarded": 4123,
      "Venez": 4124,
      "compass": 4125,
      "affil": 4126,
      "alph": 4127,
      "Site": 4128,
      "ria": 4129,
      "Bou": 4130,
      "editor": 4131,
      "ection": 4132,
      "Ford": 4133,
      "police": 4134,
      "Colom": 4135,
      "spread": 4136,
      "register": 4137,
      "Connecticut": 4138,
      "bal": 4139,
      "combat": 4140,
      "millennium": 4141,
      "cyclone": 4142,
      "mole": 4143,
      "1984": 4144,
      "intended": 4145,
      "thur": 4146,
      "reflect": 4147,
      "animal": 4148,
      "Nic": 4149,
      "Independ": 4150,
      "lying": 4151,
      "representing": 4152,
      "tail": 4153,
      "infantry": 4154,
      "1972": 4155,
      "1968": 4156,
      "lif": 4157,
      "Dor": 4158,
      "99": 4159,
      "Hockey": 4160,
      "municipalities": 4161,
      ".\"\"\"": 4162,
      "Eliz": 4163,
      "elevation": 4164,
      "jur": 4165,
      "utenant": 4166,
      "initially": 4167,
      "1988": 4168,
      "Nep": 4169,
      "Professor": 4170,
      "ishing": 4171,
      "God": 4172,
      "Stan": 4173,
      "amber": 4174,
      "Tim": 4175,
      "anced": 4176,
      "pair": 4177,
      "Saxony": 4178,
      "Fall": 4179,
      "Belgian": 4180,
      "Order": 4181,
      "eclip": 4182,
      "cles": 4183,
      "nament": 4184,
      "manager": 4185,
      "bra": 4186,
      "pop": 4187,
      "society": 4188,
      "practice": 4189,
      "presents": 4190,
      "78": 4191,
      "Rio": 4192,
      "miral": 4193,
      "Portugal": 4194,
      "Cab": 4195,
      "independence": 4196,
      "dress": 4197,
      "remaining": 4198,
      "Research": 4199,
      "Ukrain": 4200,
      "onym": 4201,
      "ken": 4202,
      "ns": 4203,
      "Coun": 4204,
      "corner": 4205,
      "terminus": 4206,
      "Hospital": 4207,
      "Gi": 4208,
      "Dun": 4209,
      "IV": 4210,
      "Ash": 4211,
      "properties": 4212,
      "Pittsburgh": 4213,
      "finished": 4214,
      "Finn": 4215,
      "diocese": 4216,
      "rapid": 4217,
      "1944": 4218,
      "Som": 4219,
      "leaf": 4220,
      "appearance": 4221,
      "Stock": 4222,
      "1974": 4223,
      "Military": 4224,
      "writing": 4225,
      "Built": 4226,
      "rig": 4227,
      "directly": 4228,
      "identified": 4229,
      "models": 4230,
      "grade": 4231,
      "Field": 4232,
      "materials": 4233,
      "mountains": 4234,
      "association": 4235,
      "never": 4236,
      "Wel": 4237,
      "Count": 4238,
      "Det": 4239,
      "eship": 4240,
      "othic": 4241,
      "Sab": 4242,
      "Van": 4243,
      "facilities": 4244,
      "dance": 4245,
      "selected": 4246,
      "Special": 4247,
      "Bon": 4248,
      "existed": 4249,
      "sail": 4250,
      "Team": 4251,
      "Moscow": 4252,
      "Director": 4253,
      "aving": 4254,
      "Borough": 4255,
      "1923": 4256,
      "thir": 4257,
      "prepar": 4258,
      "cultiv": 4259,
      "ivod": 4260,
      "Hawai": 4261,
      "Ira": 4262,
      "ords": 4263,
      "ances": 4264,
      "driver": 4265,
      "solar": 4266,
      "regul": 4267,
      "Originally": 4268,
      "Card": 4269,
      "68": 4270,
      "rose": 4271,
      "centr": 4272,
      "card": 4273,
      "seasons": 4274,
      "Two": 4275,
      "ii": 4276,
      "irection": 4277,
      "Tamil": 4278,
      "Pas": 4279,
      "Malaysia": 4280,
      "door": 4281,
      "viol": 4282,
      "languages": 4283,
      "rather": 4284,
      "Age": 4285,
      "organic": 4286,
      "Wy": 4287,
      "Raj": 4288,
      "wick": 4289,
      "pool": 4290,
      "inj": 4291,
      "Haut": 4292,
      "cm": 4293,
      "sych": 4294,
      "bourne": 4295,
      "bu": 4296,
      "cert": 4297,
      "incial": 4298,
      "Committee": 4299,
      "fields": 4300,
      "Film": 4301,
      "Sus": 4302,
      "myth": 4303,
      "1970": 4304,
      "claimed": 4305,
      "Ep": 4306,
      "58": 4307,
      "towards": 4308,
      "77": 4309,
      "relatively": 4310,
      "1982": 4311,
      "tributary": 4312,
      "5th": 4313,
      "fight": 4314,
      "Ukrainian": 4315,
      "designs": 4316,
      "tainment": 4317,
      "Theatre": 4318,
      "programs": 4319,
      "overall": 4320,
      "Nord": 4321,
      "1986": 4322,
      "Member": 4323,
      "Education": 4324,
      "hind": 4325,
      "ranean": 4326,
      "ved": 4327,
      "Bos": 4328,
      "Lee": 4329,
      "urs": 4330,
      "ivodeship": 4331,
      "noble": 4332,
      "growth": 4333,
      "ray": 4334,
      "commander": 4335,
      "block": 4336,
      "usion": 4337,
      "Chap": 4338,
      "candid": 4339,
      "Johann": 4340,
      "facility": 4341,
      "extensive": 4342,
      "Aff": 4343,
      "bridges": 4344,
      "Jackson": 4345,
      "featured": 4346,
      "awards": 4347,
      "Muslim": 4348,
      "Tower": 4349,
      "ania": 4350,
      "Aut": 4351,
      "Kir": 4352,
      "computer": 4353,
      "mixed": 4354,
      "Reserve": 4355,
      "1918": 4356,
      "Ob": 4357,
      "aine": 4358,
      "landscape": 4359,
      "Nations": 4360,
      "enna": 4361,
      "Vis": 4362,
      "stands": 4363,
      "Palest": 4364,
      "influenced": 4365,
      "tri": 4366,
      "1910": 4367,
      "Jud": 4368,
      "basin": 4369,
      "aug": 4370,
      "Emperor": 4371,
      "scholar": 4372,
      "relation": 4373,
      "grass": 4374,
      "Anno": 4375,
      "1975": 4376,
      "Venezuel": 4377,
      "Head": 4378,
      "ube": 4379,
      "comes": 4380,
      "Cir": 4381,
      "hus": 4382,
      "bands": 4383,
      "Domini": 4384,
      "ateau": 4385,
      "coal": 4386,
      "Ul": 4387,
      "sent": 4388,
      "unior": 4389,
      "Voivodeship": 4390,
      "aqu": 4391,
      "roughly": 4392,
      "domest": 4393,
      "legal": 4394,
      "reserve": 4395,
      "Office": 4396,
      "Naval": 4397,
      "bac": 4398,
      "ashion": 4399,
      "encompass": 4400,
      "quest": 4401,
      "1964": 4402,
      "bean": 4403,
      "geograph": 4404,
      "1990s": 4405,
      "hundred": 4406,
      "married": 4407,
      "1900": 4408,
      "rossing": 4409,
      "artistic": 4410,
      "lah": 4411,
      "possible": 4412,
      "trees": 4413,
      "graduate": 4414,
      "1979": 4415,
      "joint": 4416,
      "institutions": 4417,
      "records": 4418,
      "diss": 4419,
      "iga": 4420,
      "izing": 4421,
      "commissioned": 4422,
      "prior": 4423,
      "magazine": 4424,
      "elopment": 4425,
      "missions": 4426,
      "opera": 4427,
      "Southeast": 4428,
      "elle": 4429,
      "numbers": 4430,
      "bs": 4431,
      "Arm": 4432,
      "conf": 4433,
      "Arkansas": 4434,
      "atch": 4435,
      "containing": 4436,
      "brown": 4437,
      "hospital": 4438,
      "ees": 4439,
      "fel": 4440,
      "hr": 4441,
      "unte": 4442,
      "1983": 4443,
      "piece": 4444,
      "declared": 4445,
      "store": 4446,
      "acting": 4447,
      "axim": 4448,
      "Mediter": 4449,
      "defeated": 4450,
      "butterfly": 4451,
      "recip": 4452,
      "ogen": 4453,
      "average": 4454,
      "direction": 4455,
      "Cultural": 4456,
      "kind": 4457,
      "comprises": 4458,
      "Oxford": 4459,
      "Rac": 4460,
      "prem": 4461,
      "Andrew": 4462,
      "habitat": 4463,
      "Argentine": 4464,
      "data": 4465,
      "Founded": 4466,
      "Die": 4467,
      "traffic": 4468,
      "Mes": 4469,
      "Bi": 4470,
      "saf": 4471,
      "1973": 4472,
      "Men": 4473,
      "gate": 4474,
      "Ath": 4475,
      "Renaissance": 4476,
      "9th": 4477,
      "1920s": 4478,
      "Rom": 4479,
      "months": 4480,
      "eline": 4481,
      "produce": 4482,
      "otes": 4483,
      "announced": 4484,
      "150": 4485,
      "Well": 4486,
      "iew": 4487,
      "Mediterranean": 4488,
      "Oak": 4489,
      "controll": 4490,
      "icine": 4491,
      "Iraq": 4492,
      "Festival": 4493,
      "cabinet": 4494,
      "spl": 4495,
      "pine": 4496,
      "SE": 4497,
      "rev": 4498,
      "management": 4499,
      "Mir": 4500,
      "Earl": 4501,
      "Prad": 4502,
      "Lam": 4503,
      "sche": 4504,
      "issues": 4505,
      "festival": 4506,
      "lection": 4507,
      "Arthur": 4508,
      "Bow": 4509,
      "Hampshire": 4510,
      "1985": 4511,
      "ucky": 4512,
      "agu": 4513,
      "Eu": 4514,
      "imens": 4515,
      "Wild": 4516,
      "mine": 4517,
      "secondary": 4518,
      "roc": 4519,
      "subsid": 4520,
      "Board": 4521,
      "pedition": 4522,
      "Kur": 4523,
      "ror": 4524,
      "spect": 4525,
      "Confed": 4526,
      "bai": 4527,
      "fung": 4528,
      "landmark": 4529,
      "eclipse": 4530,
      "thought": 4531,
      "thodox": 4532,
      "AD": 4533,
      "oke": 4534,
      "inae": 4535,
      "ares": 4536,
      "concern": 4537,
      "library": 4538,
      "itch": 4539,
      "ridge": 4540,
      "mam": 4541,
      "Americans": 4542,
      "Bishop": 4543,
      "Ry": 4544,
      "olved": 4545,
      "ancest": 4546,
      "administration": 4547,
      "Bell": 4548,
      "Batt": 4549,
      "Rob": 4550,
      "individuals": 4551,
      "Four": 4552,
      "But": 4553,
      "Alab": 4554,
      "diam": 4555,
      "wine": 4556,
      "Devon": 4557,
      "wig": 4558,
      "Lanka": 4559,
      "genera": 4560,
      "1976": 4561,
      "theory": 4562,
      "pattern": 4563,
      "Bavaria": 4564,
      "personal": 4565,
      "kin": 4566,
      "varian": 4567,
      "Follow": 4568,
      "Pass": 4569,
      "assigned": 4570,
      "acid": 4571,
      "surviving": 4572,
      "hist": 4573,
      "fav": 4574,
      "rugby": 4575,
      "..": 4576,
      "council": 4577,
      "178": 4578,
      "Utah": 4579,
      "dise": 4580,
      "entered": 4581,
      "56": 4582,
      "night": 4583,
      "Armed": 4584,
      "wal": 4585,
      "13th": 4586,
      "bes": 4587,
      "studies": 4588,
      "Colon": 4589,
      "carry": 4590,
      "how": 4591,
      "Administr": 4592,
      "connects": 4593,
      "1967": 4594,
      "mother": 4595,
      "Step": 4596,
      "mollusk": 4597,
      "railroad": 4598,
      "ention": 4599,
      "influential": 4600,
      "Guine": 4601,
      "Ass": 4602,
      "economy": 4603,
      "brief": 4604,
      "Infantry": 4605,
      "shape": 4606,
      "Finland": 4607,
      "98": 4608,
      "sculpture": 4609,
      "Light": 4610,
      "decades": 4611,
      "Pradesh": 4612,
      "Frederick": 4613,
      "Ku": 4614,
      "occupied": 4615,
      "converted": 4616,
      "believed": 4617,
      "Hou": 4618,
      "dry": 4619,
      "cust": 4620,
      "riage": 4621,
      "historically": 4622,
      "tur": 4623,
      "semi": 4624,
      "cuisine": 4625,
      "1965": 4626,
      "Technology": 4627,
      "Sav": 4628,
      "Alabama": 4629,
      "dating": 4630,
      "Gothic": 4631,
      "adu": 4632,
      "Following": 4633,
      "iat": 4634,
      "UC": 4635,
      "isters": 4636,
      "cos": 4637,
      "lists": 4638,
      "broadcast": 4639,
      "ises": 4640,
      "ips": 4641,
      "oque": 4642,
      "aza": 4643,
      "Cer": 4644,
      "destroyed": 4645,
      "subsequently": 4646,
      "songs": 4647,
      "Por": 4648,
      "Slovenia": 4649,
      "extended": 4650,
      "Awards": 4651,
      "Lady": 4652,
      "erala": 4653,
      "15th": 4654,
      "Bengal": 4655,
      "oli": 4656,
      "respon": 4657,
      "Colombia": 4658,
      "resort": 4659,
      "ourg": 4660,
      "threat": 4661,
      "12th": 4662,
      "Chris": 4663,
      "returned": 4664,
      "Oklah": 4665,
      "perman": 4666,
      "longer": 4667,
      "Way": 4668,
      "offices": 4669,
      "Niger": 4670,
      "iance": 4671,
      "forward": 4672,
      "Oklahoma": 4673,
      "Kerala": 4674,
      "Lar": 4675,
      "ema": 4676,
      "Maine": 4677,
      "1987": 4678,
      "Louisiana": 4679,
      "gardens": 4680,
      "Azer": 4681,
      "ishes": 4682,
      "objects": 4683,
      "sixth": 4684,
      "succe": 4685,
      "indigenous": 4686,
      "1971": 4687,
      "Federation": 4688,
      "ients": 4689,
      "parliament": 4690,
      "1969": 4691,
      "takes": 4692,
      "Elizabeth": 4693,
      "neg": 4694,
      "frag": 4695,
      "Tun": 4696,
      "create": 4697,
      "Cra": 4698,
      "qual": 4699,
      "Parish": 4700,
      "NH": 4701,
      "1942": 4702,
      "immed": 4703,
      "uty": 4704,
      "sed": 4705,
      "financ": 4706,
      "ranch": 4707,
      "1940": 4708,
      "Railways": 4709,
      "code": 4710,
      "Industr": 4711,
      "adopted": 4712,
      "poses": 4713,
      "offers": 4714,
      "sources": 4715,
      "1939": 4716,
      "immigr": 4717,
      "diff": 4718,
      "Daniel": 4719,
      "institution": 4720,
      "aga": 4721,
      "FI": 4722,
      "1978": 4723,
      "amin": 4724,
      "diplomatic": 4725,
      "Ot": 4726,
      "amount": 4727,
      "accept": 4728,
      "fiction": 4729,
      "Catal": 4730,
      "Cas": 4731,
      "critic": 4732,
      "lyn": 4733,
      "latter": 4734,
      "SCO": 4735,
      "bach": 4736,
      "maker": 4737,
      "museums": 4738,
      "erate": 4739,
      "Slovak": 4740,
      "bad": 4741,
      "1946": 4742,
      "itation": 4743,
      "issued": 4744,
      "core": 4745,
      "players": 4746,
      "operator": 4747,
      "Sud": 4748,
      "ilton": 4749,
      "Medal": 4750,
      "quarter": 4751,
      "combined": 4752,
      "maintained": 4753,
      "powered": 4754,
      "Net": 4755,
      "apore": 4756,
      "Alaska": 4757,
      "1941": 4758,
      "Azerbai": 4759,
      "points": 4760,
      "presidential": 4761,
      "Wars": 4762,
      "Hum": 4763,
      "Police": 4764,
      "chen": 4765,
      "Commonwealth": 4766,
      "gam": 4767,
      "armed": 4768,
      "rare": 4769,
      "Var": 4770,
      "Angl": 4771,
      "comedy": 4772,
      "purch": 4773,
      "midfielder": 4774,
      "Affairs": 4775,
      "Lanc": 4776,
      "Trust": 4777,
      "Hotel": 4778,
      "Bec": 4779,
      "Boy": 4780,
      "grapher": 4781,
      "elve": 4782,
      "mount": 4783,
      "Marsh": 4784,
      "Conference": 4785,
      "goal": 4786,
      "consider": 4787,
      "emet": 4788,
      "Kentucky": 4789,
      "olis": 4790,
      "Dak": 4791,
      "agent": 4792,
      "Les": 4793,
      "Lew": 4794,
      "pread": 4795,
      "rat": 4796,
      "staff": 4797,
      "Orthodox": 4798,
      "lik": 4799,
      "Singapore": 4800,
      "1981": 4801,
      "oted": 4802,
      "weap": 4803,
      "Alban": 4804,
      "1966": 4805,
      "itime": 4806,
      "acquired": 4807,
      "alo": 4808,
      "display": 4809,
      "Tel": 4810,
      "Hindu": 4811,
      "pref": 4812,
      "ifically": 4813,
      "lot": 4814,
      "little": 4815,
      "opter": 4816,
      "ayan": 4817,
      "platform": 4818,
      "branches": 4819,
      "1919": 4820,
      "lat": 4821,
      "pioneer": 4822,
      "adult": 4823,
      "Spring": 4824,
      "behind": 4825,
      "Health": 4826,
      "1943": 4827,
      "bomb": 4828,
      "fighter": 4829,
      "san": 4830,
      "Buddhist": 4831,
      "ogue": 4832,
      "fashion": 4833,
      "14th": 4834,
      "forts": 4835,
      "gained": 4836,
      "said": 4837,
      "applied": 4838,
      "Community": 4839,
      "yard": 4840,
      "ennial": 4841,
      "probably": 4842,
      "represents": 4843,
      "mining": 4844,
      "memorial": 4845,
      "olished": 4846,
      "Open": 4847,
      "stret": 4848,
      "Foundation": 4849,
      "Roc": 4850,
      "participated": 4851,
      "atom": 4852,
      "guitarist": 4853,
      "univers": 4854,
      "sug": 4855,
      "angel": 4856,
      "1947": 4857,
      "1960": 4858,
      "formal": 4859,
      "79": 4860,
      "Amb": 4861,
      "pian": 4862,
      "tank": 4863,
      "cester": 4864,
      "Deput": 4865,
      "male": 4866,
      "conditions": 4867,
      "ects": 4868,
      "Aust": 4869,
      "mur": 4870,
      "eman": 4871,
      "locomotives": 4872,
      "nel": 4873,
      "1917": 4874,
      "Nik": 4875,
      "Ba": 4876,
      "Dur": 4877,
      "victory": 4878,
      "marked": 4879,
      "opening": 4880,
      "aven": 4881,
      "physical": 4882,
      "fully": 4883,
      "iday": 4884,
      "ills": 4885,
      "Victorian": 4886,
      "Stadium": 4887,
      "Range": 4888,
      "provinces": 4889,
      "Song": 4890,
      "inian": 4891,
      "govern": 4892,
      "Prize": 4893,
      "Cre": 4894,
      "pul": 4895,
      "oud": 4896,
      "Gir": 4897,
      "Mong": 4898,
      "History": 4899,
      "rect": 4900,
      "ranked": 4901,
      "dale": 4902,
      "Toy": 4903,
      "achiev": 4904,
      "continent": 4905,
      "headquartered": 4906,
      "alle": 4907,
      "Tan": 4908,
      "older": 4909,
      "Kaz": 4910,
      "global": 4911,
      "soldier": 4912,
      "servative": 4913,
      "Book": 4914,
      "1977": 4915,
      "UNE": 4916,
      "additional": 4917,
      "Serbian": 4918,
      "should": 4919,
      "Tro": 4920,
      "squadron": 4921,
      "rison": 4922,
      "intersection": 4923,
      "prene": 4924,
      "ruled": 4925,
      "jazz": 4926,
      "imore": 4927,
      "Guinea": 4928,
      "Lev": 4929,
      "asy": 4930,
      "astronom": 4931,
      "Finnish": 4932,
      "tram": 4933,
      "astic": 4934,
      "idespread": 4935,
      "phas": 4936,
      "figures": 4937,
      "Pap": 4938,
      "stars": 4939,
      "bene": 4940,
      "sister": 4941,
      "profession": 4942,
      "meters": 4943,
      "Prem": 4944,
      "routes": 4945,
      "UNESCO": 4946,
      "know": 4947,
      "gauge": 4948,
      "600": 4949,
      "continues": 4950,
      "locations": 4951,
      "hit": 4952,
      "sized": 4953,
      "illing": 4954,
      "literary": 4955,
      "brought": 4956,
      "alongside": 4957,
      "Development": 4958,
      "Wind": 4959,
      "spring": 4960,
      "inhab": 4961,
      "1912": 4962,
      "lit": 4963,
      "PC": 4964,
      "anes": 4965,
      "orial": 4966,
      "entre": 4967,
      "aging": 4968,
      "fare": 4969,
      "eces": 4970,
      "newspaper": 4971,
      "domestic": 4972,
      "gor": 4973,
      "indic": 4974,
      "ysis": 4975,
      "ads": 4976,
      "usp": 4977,
      "Id": 4978,
      "Jeff": 4979,
      "Wing": 4980,
      "rise": 4981,
      "density": 4982,
      "secur": 4983,
      "olia": 4984,
      "steel": 4985,
      "Organ": 4986,
      "diplomat": 4987,
      "Shan": 4988,
      "1914": 4989,
      "TA": 4990,
      "Portland": 4991,
      "Ko": 4992,
      "Sciences": 4993,
      "hagen": 4994,
      "agency": 4995,
      "glas": 4996,
      "monarch": 4997,
      "counter": 4998,
      "iques": 4999,
      "Fle": 5000,
      "Kam": 5001,
      "visual": 5002,
      "Nepal": 5003,
      "crew": 5004,
      "silent": 5005,
      "widespread": 5006,
      "inth": 5007,
      "Like": 5008,
      "Express": 5009,
      "1950": 5010,
      "cuit": 5011,
      "web": 5012,
      "cases": 5013,
      "Records": 5014,
      "projects": 5015,
      "authority": 5016,
      "Carib": 5017,
      "Not": 5018,
      "Franco": 5019,
      "Seattle": 5020,
      "shopping": 5021,
      "depict": 5022,
      "rence": 5023,
      "passes": 5024,
      "cha": 5025,
      "nav": 5026,
      "ption": 5027,
      "lets": 5028,
      "encies": 5029,
      "Pun": 5030,
      "Winter": 5031,
      "theater": 5032,
      "MA": 5033,
      "Desp": 5034,
      "1962": 5035,
      "autonomous": 5036,
      "Baltimore": 5037,
      "vary": 5038,
      "paper": 5039,
      "Out": 5040,
      "ero": 5041,
      "dark": 5042,
      "ozo": 5043,
      "Tri": 5044,
      "merch": 5045,
      "liber": 5046,
      "providing": 5047,
      "Bh": 5048,
      "Fam": 5049,
      "arring": 5050,
      "Da": 5051,
      "ultan": 5052,
      "distinguished": 5053,
      "frequently": 5054,
      "Jacob": 5055,
      "athlet": 5056,
      "carried": 5057,
      "Op": 5058,
      "archaeological": 5059,
      "Brigade": 5060,
      "59": 5061,
      "olas": 5062,
      "ika": 5063,
      "atin": 5064,
      "supported": 5065,
      "agricultural": 5066,
      "rate": 5067,
      "iva": 5068,
      "ographer": 5069,
      "oka": 5070,
      "heart": 5071,
      "concentr": 5072,
      "aceous": 5073,
      "antly": 5074,
      "page": 5075,
      "god": 5076,
      "tos": 5077,
      "nis": 5078,
      "gir": 5079,
      "covery": 5080,
      "Melbourne": 5081,
      "examples": 5082,
      "Alb": 5083,
      "Jesus": 5084,
      "botan": 5085,
      "Stra": 5086,
      "Ray": 5087,
      "monuments": 5088,
      "incess": 5089,
      "drug": 5090,
      "covering": 5091,
      "Ale": 5092,
      "ureau": 5093,
      "1956": 5094,
      "nut": 5095,
      "Moon": 5096,
      "fair": 5097,
      "vest": 5098,
      "troops": 5099,
      "rance": 5100,
      "brew": 5101,
      "imet": 5102,
      "Manchester": 5103,
      "inde": 5104,
      "secre": 5105,
      "registered": 5106,
      "Sao": 5107,
      "ifican": 5108,
      "quality": 5109,
      "Spe": 5110,
      "iations": 5111,
      "Early": 5112,
      "genre": 5113,
      "osa": 5114,
      "heav": 5115,
      "Nevada": 5116,
      "Interstate": 5117,
      "painted": 5118,
      "commemor": 5119,
      "notably": 5120,
      "helped": 5121,
      "establishment": 5122,
      "ificance": 5123,
      "cz": 5124,
      "clear": 5125,
      "Douglas": 5126,
      "crossing": 5127,
      "nom": 5128,
      "ori": 5129,
      "Events": 5130,
      "prec": 5131,
      "Lt": 5132,
      "kingdom": 5133,
      "Young": 5134,
      "andon": 5135,
      "Chair": 5136,
      "designation": 5137,
      "purposes": 5138,
      "1963": 5139,
      "resist": 5140,
      "Romanian": 5141,
      "entreprene": 5142,
      "cells": 5143,
      "bear": 5144,
      "populated": 5145,
      "Maced": 5146,
      "makes": 5147,
      "Top": 5148,
      "Mand": 5149,
      "Canal": 5150,
      "distribution": 5151,
      "88": 5152,
      "lov": 5153,
      "amps": 5154,
      "summit": 5155,
      "Islamic": 5156,
      "Pres": 5157,
      "policy": 5158,
      "ses": 5159,
      "More": 5160,
      "Rhine": 5161,
      "credited": 5162,
      "carbon": 5163,
      "greater": 5164,
      "automobile": 5165,
      "whole": 5166,
      "67": 5167,
      "persons": 5168,
      "Iranian": 5169,
      "Country": 5170,
      "fred": 5171,
      "flat": 5172,
      "geomet": 5173,
      "Philip": 5174,
      "iting": 5175,
      "presence": 5176,
      "winter": 5177,
      "subspecies": 5178,
      "Free": 5179,
      "proble": 5180,
      "horn": 5181,
      "recording": 5182,
      "religion": 5183,
      "mes": 5184,
      "Marie": 5185,
      "ooth": 5186,
      "greg": 5187,
      "roit": 5188,
      "ranks": 5189,
      "importance": 5190,
      "Copen": 5191,
      "double": 5192,
      "Py": 5193,
      "ody": 5194,
      "Village": 5195,
      "consum": 5196,
      "Sher": 5197,
      "revolution": 5198,
      "flying": 5199,
      "Architect": 5200,
      "expanded": 5201,
      "taking": 5202,
      "studied": 5203,
      "keep": 5204,
      "uture": 5205,
      "cook": 5206,
      "titles": 5207,
      "Copenhagen": 5208,
      "Revival": 5209,
      "inf": 5210,
      "views": 5211,
      "neighbourhood": 5212,
      "formally": 5213,
      "psych": 5214,
      "auto": 5215,
      "fleet": 5216,
      "Gor": 5217,
      "bow": 5218,
      "rice": 5219,
      "parks": 5220,
      "constituency": 5221,
      "originated": 5222,
      "ables": 5223,
      "ami": 5224,
      "banks": 5225,
      "Ah": 5226,
      "boundary": 5227,
      "Caribbean": 5228,
      "Draft": 5229,
      "degree": 5230,
      "starring": 5231,
      "VI": 5232,
      "ources": 5233,
      "phe": 5234,
      "category": 5235,
      "characters": 5236,
      "palace": 5237,
      "rif": 5238,
      "CD": 5239,
      "moving": 5240,
      "oppos": 5241,
      "ellig": 5242,
      "1915": 5243,
      "Defense": 5244,
      "Rod": 5245,
      "Tal": 5246,
      "organizations": 5247,
      "Kon": 5248,
      "significance": 5249,
      "aware": 5250,
      "monastery": 5251,
      "prings": 5252,
      "hamlet": 5253,
      "ading": 5254,
      "vin": 5255,
      "Eston": 5256,
      "opt": 5257,
      "Aqu": 5258,
      "ously": 5259,
      "End": 5260,
      "Mayor": 5261,
      "Late": 5262,
      "MP": 5263,
      "apart": 5264,
      "traditions": 5265,
      "Houston": 5266,
      "existence": 5267,
      "8th": 5268,
      "subsidiary": 5269,
      "Dal": 5270,
      "owers": 5271,
      "solid": 5272,
      "winner": 5273,
      "Natural": 5274,
      "akers": 5275,
      "membered": 5276,
      "bott": 5277,
      "GC": 5278,
      "Rico": 5279,
      "1959": 5280,
      "beetle": 5281,
      "Hun": 5282,
      "distributed": 5283,
      "edition": 5284,
      "Pad": 5285,
      "cloth": 5286,
      "Nazi": 5287,
      "69": 5288,
      "jar": 5289,
      "kins": 5290,
      "Anc": 5291,
      "iking": 5292,
      "Clark": 5293,
      "Garden": 5294,
      "800": 5295,
      "Detroit": 5296,
      "characterized": 5297,
      "insp": 5298,
      "Ra": 5299,
      "Front": 5300,
      "advoc": 5301,
      "Hay": 5302,
      "teenth": 5303,
      "abad": 5304,
      "friend": 5305,
      "Johnson": 5306,
      "predomin": 5307,
      "ito": 5308,
      "passed": 5309,
      "1913": 5310,
      "1916": 5311,
      "Despite": 5312,
      "ibility": 5313,
      "conflict": 5314,
      "tribe": 5315,
      "Peak": 5316,
      "diverse": 5317,
      "cho": 5318,
      "Mars": 5319,
      "Liberal": 5320,
      "affiliated": 5321,
      "student": 5322,
      "championship": 5323,
      "Anth": 5324,
      "Juan": 5325,
      "bane": 5326,
      "greatest": 5327,
      "Nob": 5328,
      "pes": 5329,
      "antic": 5330,
      "Gro": 5331,
      "Of": 5332,
      "Antonio": 5333,
      "eenth": 5334,
      "Maur": 5335,
      "1958": 5336,
      "zen": 5337,
      "himself": 5338,
      "1949": 5339,
      "Brad": 5340,
      "divisions": 5341,
      "Also": 5342,
      "ieties": 5343,
      "physician": 5344,
      "secut": 5345,
      "Lor": 5346,
      "Baroque": 5347,
      "constitut": 5348,
      "Gil": 5349,
      "speaking": 5350,
      "agre": 5351,
      "inside": 5352,
      "Univers": 5353,
      "Rel": 5354,
      "1961": 5355,
      "specifically": 5356,
      "veget": 5357,
      "fishing": 5358,
      "umn": 5359,
      "aching": 5360,
      "floor": 5361,
      "Ten": 5362,
      "Rap": 5363,
      "singles": 5364,
      "ulty": 5365,
      "64": 5366,
      "agement": 5367,
      "ido": 5368,
      "iments": 5369,
      "grant": 5370,
      "Ka": 5371,
      "cathedral": 5372,
      "phy": 5373,
      "Samuel": 5374,
      "anthrop": 5375,
      "nest": 5376,
      "stad": 5377,
      "retail": 5378,
      "entrepreneur": 5379,
      "nations": 5380,
      "connecting": 5381,
      "Wur": 5382,
      "Croatia": 5383,
      "unting": 5384,
      "powerful": 5385,
      "volcan": 5386,
      "leaders": 5387,
      "surrounded": 5388,
      "1955": 5389,
      "Abbey": 5390,
      "Cost": 5391,
      "photographer": 5392,
      "replac": 5393,
      "Sel": 5394,
      "1922": 5395,
      "Cad": 5396,
      "Three": 5397,
      "Tib": 5398,
      "Tay": 5399,
      "umbent": 5400,
      "contest": 5401,
      "Egyptian": 5402,
      "Win": 5403,
      "Territory": 5404,
      "shown": 5405,
      "presented": 5406,
      "inity": 5407,
      "MC": 5408,
      "gem": 5409,
      "orch": 5410,
      "townships": 5411,
      "nuclear": 5412,
      "iege": 5413,
      "sides": 5414,
      "wings": 5415,
      "deliver": 5416,
      "Fore": 5417,
      "Band": 5418,
      "grows": 5419,
      "sched": 5420,
      "twice": 5421,
      "ovo": 5422,
      "urally": 5423,
      "ghan": 5424,
      "Stephen": 5425,
      "Las": 5426,
      "oslav": 5427,
      "increasing": 5428,
      "flies": 5429,
      "Pur": 5430,
      "solo": 5431,
      "Formula": 5432,
      "recept": 5433,
      "Athlet": 5434,
      "MD": 5435,
      "required": 5436,
      "ires": 5437,
      "Prior": 5438,
      "160": 5439,
      "imal": 5440,
      "iami": 5441,
      ",\"\"": 5442,
      "hect": 5443,
      "ansion": 5444,
      "Anglican": 5445,
      "Rhin": 5446,
      "ingham": 5447,
      "Rang": 5448,
      "Born": 5449,
      "Life": 5450,
      "continuous": 5451,
      "Montreal": 5452,
      "partial": 5453,
      "AC": 5454,
      "etic": 5455,
      "coins": 5456,
      "Fu": 5457,
      "ensis": 5458,
      "lux": 5459,
      "zone": 5460,
      "movie": 5461,
      "functions": 5462,
      "72": 5463,
      "Fire": 5464,
      "Ages": 5465,
      "Hes": 5466,
      "educator": 5467,
      "damage": 5468,
      "pieces": 5469,
      "Ltd": 5470,
      "omes": 5471,
      "officers": 5472,
      "leveland": 5473,
      "collections": 5474,
      "51": 5475,
      "Fel": 5476,
      "uma": 5477,
      "Cleveland": 5478,
      "help": 5479,
      "transportation": 5480,
      "experiment": 5481,
      "Son": 5482,
      "distinctive": 5483,
      "Play": 5484,
      "Iron": 5485,
      "gs": 5486,
      "52": 5487,
      "Miami": 5488,
      "Armenian": 5489,
      "Laur": 5490,
      "conservation": 5491,
      "falls": 5492,
      "flood": 5493,
      "contained": 5494,
      "usal": 5495,
      "soldiers": 5496,
      "esc": 5497,
      "must": 5498,
      "instead": 5499,
      "insect": 5500,
      "Bureau": 5501,
      "hair": 5502,
      "twelve": 5503,
      "otic": 5504,
      "grew": 5505,
      "cyclones": 5506,
      "sion": 5507,
      "Napole": 5508,
      "Coll": 5509,
      "administer": 5510,
      "lane": 5511,
      "electronic": 5512,
      "wooden": 5513,
      "tel": 5514,
      "provincial": 5515,
      "eller": 5516,
      "appears": 5517,
      "Baden": 5518,
      "ighthouse": 5519,
      "sens": 5520,
      "ninet": 5521,
      "effects": 5522,
      "Eth": 5523,
      "mart": 5524,
      "worn": 5525,
      "temples": 5526,
      "10th": 5527,
      "earth": 5528,
      "grounds": 5529,
      "NFL": 5530,
      "liqu": 5531,
      "cas": 5532,
      "Ve": 5533,
      "Home": 5534,
      "hero": 5535,
      "rules": 5536,
      "iesel": 5537,
      "danc": 5538,
      "Defence": 5539,
      "Bapt": 5540,
      "Delaware": 5541,
      "vessel": 5542,
      "icts": 5543,
      "increased": 5544,
      "hop": 5545,
      "sa": 5546,
      "iya": 5547,
      "contributions": 5548,
      "permanent": 5549,
      "Dakota": 5550,
      "step": 5551,
      "Vermont": 5552,
      "populous": 5553,
      "extends": 5554,
      "remembered": 5555,
      "ware": 5556,
      "iop": 5557,
      "lers": 5558,
      "forced": 5559,
      "1936": 5560,
      "ampton": 5561,
      "Kan": 5562,
      "hat": 5563,
      "Medical": 5564,
      "Current": 5565,
      "ozoic": 5566,
      "Nar": 5567,
      "Each": 5568,
      "Si": 5569,
      "seud": 5570,
      "1921": 5571,
      "swim": 5572,
      "Nich": 5573,
      "zo": 5574,
      "Bris": 5575,
      "demon": 5576,
      "uled": 5577,
      "Historical": 5578,
      "Show": 5579,
      "positions": 5580,
      "prom": 5581,
      "Alexand": 5582,
      "Falls": 5583,
      "Williams": 5584,
      "62": 5585,
      "ety": 5586,
      "digital": 5587,
      "hatt": 5588,
      "istol": 5589,
      "hosted": 5590,
      "cause": 5591,
      "gos": 5592,
      "Donald": 5593,
      "120": 5594,
      "guard": 5595,
      "engines": 5596,
      "Mov": 5597,
      "Revolutionary": 5598,
      "pitcher": 5599,
      "billion": 5600,
      "igation": 5601,
      "Brun": 5602,
      "lack": 5603,
      "channel": 5604,
      "orm": 5605,
      "ricket": 5606,
      "ucks": 5607,
      "Lud": 5608,
      "ST": 5609,
      "atus": 5610,
      "aught": 5611,
      "entry": 5612,
      "hills": 5613,
      "Lieutenant": 5614,
      "Sports": 5615,
      "drafted": 5616,
      "Fried": 5617,
      "emetery": 5618,
      "diameter": 5619,
      "Beij": 5620,
      "agan": 5621,
      "planned": 5622,
      "coll": 5623,
      "visitors": 5624,
      "Supreme": 5625,
      "representative": 5626,
      "Legislative": 5627,
      "Trail": 5628,
      "Khan": 5629,
      "Foreign": 5630,
      "Offic": 5631,
      "build": 5632,
      "Admiral": 5633,
      "manufacturing": 5634,
      "Walter": 5635,
      "Engineering": 5636,
      "Gib": 5637,
      "cus": 5638,
      "fighting": 5639,
      "1952": 5640,
      "Bat": 5641,
      "attached": 5642,
      "voice": 5643,
      "Diego": 5644,
      "ols": 5645,
      "succeeded": 5646,
      "juris": 5647,
      "Vice": 5648,
      "Author": 5649,
      "Nebr": 5650,
      "true": 5651,
      "ightly": 5652,
      "charge": 5653,
      "Philippine": 5654,
      "diction": 5655,
      "poor": 5656,
      "swe": 5657,
      "1928": 5658,
      "inhabited": 5659,
      "Do": 5660,
      "Native": 5661,
      "Cru": 5662,
      "Afghan": 5663,
      "ye": 5664,
      "Gab": 5665,
      "CO": 5666,
      "ching": 5667,
      "tournament": 5668,
      "ocean": 5669,
      "faces": 5670,
      "citizens": 5671,
      "Hamilton": 5672,
      "Nebraska": 5673,
      "Six": 5674,
      "successor": 5675,
      "Good": 5676,
      "ublin": 5677,
      "stories": 5678,
      "forc": 5679,
      "edom": 5680,
      "pict": 5681,
      "vote": 5682,
      "Vienna": 5683,
      "Beijing": 5684,
      "acier": 5685,
      "percent": 5686,
      "assador": 5687,
      "Welsh": 5688,
      "financial": 5689,
      "bay": 5690,
      "1957": 5691,
      "umin": 5692,
      "antine": 5693,
      "convent": 5694,
      "beaut": 5695,
      "ateur": 5696,
      "traditionally": 5697,
      "iled": 5698,
      "maxim": 5699,
      "drop": 5700,
      "chi": 5701,
      "plane": 5702,
      "Justice": 5703,
      "frog": 5704,
      "illy": 5705,
      "Persian": 5706,
      "basis": 5707,
      "portraits": 5708,
      "issue": 5709,
      "Alberta": 5710,
      "ipe": 5711,
      "levels": 5712,
      "Atlanta": 5713,
      "crown": 5714,
      "250": 5715,
      "biggest": 5716,
      "uge": 5717,
      "plement": 5718,
      "locomotive": 5719,
      "proved": 5720,
      "PS": 5721,
      "ahn": 5722,
      "gon": 5723,
      "isms": 5724,
      "descent": 5725,
      "Lawrence": 5726,
      "Because": 5727,
      "chairman": 5728,
      "element": 5729,
      "daily": 5730,
      "Derby": 5731,
      "curren": 5732,
      "Nam": 5733,
      "anna": 5734,
      "politics": 5735,
      "transit": 5736,
      "emy": 5737,
      "feed": 5738,
      "device": 5739,
      "Train": 5740,
      "rupt": 5741,
      "streets": 5742,
      "Sul": 5743,
      "sun": 5744,
      "proposed": 5745,
      "ryst": 5746,
      "57": 5747,
      "suit": 5748,
      "uku": 5749,
      "53": 5750,
      "link": 5751,
      "1933": 5752,
      "holding": 5753,
      "producing": 5754,
      "tunn": 5755,
      "ials": 5756,
      "tery": 5757,
      "fts": 5758,
      "partn": 5759,
      "images": 5760,
      "Jord": 5761,
      "exclus": 5762,
      "climate": 5763,
      "dead": 5764,
      "synthes": 5765,
      "protection": 5766,
      "selves": 5767,
      "boats": 5768,
      "Pruss": 5769,
      "cultures": 5770,
      "Fame": 5771,
      "Peters": 5772,
      "captured": 5773,
      "security": 5774,
      "inaug": 5775,
      "parent": 5776,
      "poetry": 5777,
      "wet": 5778,
      "ibly": 5779,
      "engra": 5780,
      "BE": 5781,
      "Ori": 5782,
      "restaurant": 5783,
      "1954": 5784,
      "prise": 5785,
      "respectively": 5786,
      "controlled": 5787,
      "themselves": 5788,
      "bil": 5789,
      "rovers": 5790,
      "iced": 5791,
      "Burn": 5792,
      "utes": 5793,
      "amph": 5794,
      "transferred": 5795,
      "hosts": 5796,
      "PA": 5797,
      "ti": 5798,
      "Flem": 5799,
      "Franklin": 5800,
      "paralle": 5801,
      "philanthrop": 5802,
      "elligence": 5803,
      "mn": 5804,
      "fossilized": 5805,
      "gle": 5806,
      "atra": 5807,
      "Jones": 5808,
      "behav": 5809,
      "So": 5810,
      "agar": 5811,
      "Tunis": 5812,
      "aling": 5813,
      "mall": 5814,
      "share": 5815,
      "plate": 5816,
      "combination": 5817,
      "Basketball": 5818,
      "progress": 5819,
      "Nou": 5820,
      "territories": 5821,
      "Rog": 5822,
      "Hart": 5823,
      "1930": 5824,
      "dram": 5825,
      "respond": 5826,
      "Byz": 5827,
      "Brisbane": 5828,
      "candidate": 5829,
      "Baptist": 5830,
      "Enter": 5831,
      "Several": 5832,
      "Anne": 5833,
      "Labor": 5834,
      "beach": 5835,
      "alternative": 5836,
      "nominated": 5837,
      "stores": 5838,
      "portrait": 5839,
      "artillery": 5840,
      "annually": 5841,
      "existing": 5842,
      "sac": 5843,
      "Edin": 5844,
      "increase": 5845,
      "Hans": 5846,
      "mph": 5847,
      "Place": 5848,
      "operate": 5849,
      "thers": 5850,
      "Ni": 5851,
      "ogy": 5852,
      "eston": 5853,
      "worship": 5854,
      "novelist": 5855,
      "onian": 5856,
      "ounger": 5857,
      "personnel": 5858,
      "Operation": 5859,
      "Pot": 5860,
      "arus": 5861,
      "ovich": 5862,
      "secret": 5863,
      "walls": 5864,
      "Modern": 5865,
      "burn": 5866,
      "move": 5867,
      "ili": 5868,
      "Whit": 5869,
      "entrance": 5870,
      "Moroc": 5871,
      "ader": 5872,
      "organisation": 5873,
      "methods": 5874,
      "invasion": 5875,
      "interior": 5876,
      "Kos": 5877,
      "eleven": 5878,
      "resulted": 5879,
      "bloc": 5880,
      "rane": 5881,
      "Nav": 5882,
      "ju": 5883,
      "Azerbaijan": 5884,
      "earned": 5885,
      "apolis": 5886,
      "yle": 5887,
      "avian": 5888,
      "Econ": 5889,
      "anian": 5890,
      "Malt": 5891,
      "pilot": 5892,
      "ras": 5893,
      "focus": 5894,
      "isse": 5895,
      "fal": 5896,
      "Gran": 5897,
      "peace": 5898,
      "mainland": 5899,
      "ben": 5900,
      "periods": 5901,
      "consisted": 5902,
      "snails": 5903,
      "highways": 5904,
      "Lewis": 5905,
      "11th": 5906,
      "marriage": 5907,
      "mention": 5908,
      "Kra": 5909,
      "controvers": 5910,
      "explor": 5911,
      "Leban": 5912,
      "athan": 5913,
      "Kil": 5914,
      "airline": 5915,
      "Jon": 5916,
      "foundation": 5917,
      "ivals": 5918,
      "peninsula": 5919,
      "disease": 5920,
      "oured": 5921,
      "tware": 5922,
      "treatment": 5923,
      "grown": 5924,
      "1938": 5925,
      "HMS": 5926,
      "races": 5927,
      "1935": 5928,
      "mut": 5929,
      "herb": 5930,
      "itting": 5931,
      "Nova": 5932,
      "aviation": 5933,
      "achieved": 5934,
      "wear": 5935,
      "administered": 5936,
      "Senator": 5937,
      "passengers": 5938,
      "plates": 5939,
      "oples": 5940,
      "Venezuela": 5941,
      "Low": 5942,
      "agh": 5943,
      "captain": 5944,
      "techniques": 5945,
      "Hud": 5946,
      "Mi": 5947,
      "versions": 5948,
      "illustrator": 5949,
      "Econom": 5950,
      "salt": 5951,
      "hours": 5952,
      "oa": 5953,
      "Edinburgh": 5954,
      "tourism": 5955,
      "usalem": 5956,
      "thew": 5957,
      "ingen": 5958,
      "Ball": 5959,
      "demonstr": 5960,
      "agle": 5961,
      "meeting": 5962,
      "Nadu": 5963,
      "Bron": 5964,
      "rial": 5965,
      "ipel": 5966,
      "abet": 5967,
      "entirely": 5968,
      "ikh": 5969,
      "Anglo": 5970,
      "Formation": 5971,
      "Later": 5972,
      "rons": 5973,
      "isol": 5974,
      "compounds": 5975,
      "Power": 5976,
      "subtropical": 5977,
      "lements": 5978,
      "kh": 5979,
      "bodies": 5980,
      "Flemish": 5981,
      "mac": 5982,
      "1911": 5983,
      "supply": 5984,
      "Jerusalem": 5985,
      "inspired": 5986,
      "gave": 5987,
      "Lis": 5988,
      "evidence": 5989,
      "reaction": 5990,
      "1908": 5991,
      "Prot": 5992,
      "Premier": 5993,
      "matches": 5994,
      "thousands": 5995,
      "61": 5996,
      "specialized": 5997,
      "discip": 5998,
      "Nan": 5999,
      "Mahar": 6000,
      "Ara": 6001,
      "susp": 6002,
      "Honor": 6003,
      "oen": 6004,
      "urity": 6005,
      "sor": 6006,
      "iti": 6007,
      "Alger": 6008,
      "Cher": 6009,
      "1905": 6010,
      "97": 6011,
      "Od": 6012,
      "Broadway": 6013,
      "shell": 6014,
      "restrict": 6015,
      "Deputy": 6016,
      "avalry": 6017,
      "likely": 6018,
      "rooms": 6019,
      "ranging": 6020,
      "flo": 6021,
      "iately": 6022,
      "Channel": 6023,
      "drive": 6024,
      "pay": 6025,
      "Aircraft": 6026,
      "husband": 6027,
      "Sultan": 6028,
      "epis": 6029,
      "split": 6030,
      "abandon": 6031,
      "prol": 6032,
      "Yug": 6033,
      "Tibet": 6034,
      "Pa": 6035,
      "Sites": 6036,
      "legisl": 6037,
      "freshwater": 6038,
      "1927": 6039,
      "1929": 6040,
      "Sah": 6041,
      "Dol": 6042,
      "proto": 6043,
      "1953": 6044,
      "lied": 6045,
      "currency": 6046,
      "Battalion": 6047,
      "ulation": 6048,
      "cum": 6049,
      "lakes": 6050,
      "seg": 6051,
      "uration": 6052,
      "oni": 6053,
      "ager": 6054,
      "rear": 6055,
      "intens": 6056,
      "Authority": 6057,
      "Lind": 6058,
      "Hard": 6059,
      "estone": 6060,
      "Prix": 6061,
      "54": 6062,
      "wise": 6063,
      "zcz": 6064,
      "shared": 6065,
      "1924": 6066,
      "Independence": 6067,
      "odge": 6068,
      "Monument": 6069,
      "Tw": 6070,
      "weather": 6071,
      "neur": 6072,
      "Fal": 6073,
      "1951": 6074,
      "scenes": 6075,
      "Cel": 6076,
      "ivity": 6077,
      "occupation": 6078,
      "resulting": 6079,
      "verse": 6080,
      "impact": 6081,
      "portr": 6082,
      "hattan": 6083,
      "Before": 6084,
      "\"\"\"": 6085,
      "Dall": 6086,
      "pack": 6087,
      "ifications": 6088,
      "oda": 6089,
      "apes": 6090,
      "Test": 6091,
      "applications": 6092,
      "nicknamed": 6093,
      "cler": 6094,
      "trib": 6095,
      "machine": 6096,
      "Princess": 6097,
      "Lithuania": 6098,
      "crim": 6099,
      "Due": 6100,
      "predominantly": 6101,
      "1932": 6102,
      "Max": 6103,
      "sector": 6104,
      "idea": 6105,
      "blood": 6106,
      "compl": 6107,
      "aint": 6108,
      "gro": 6109,
      "visible": 6110,
      "Fox": 6111,
      "future": 6112,
      "ule": 6113,
      "ipped": 6114,
      "63": 6115,
      "habitats": 6116,
      "Seven": 6117,
      "vessels": 6118,
      "scar": 6119,
      "bud": 6120,
      "gow": 6121,
      "demolished": 6122,
      "Glas": 6123,
      "Manhattan": 6124,
      "Sunday": 6125,
      "opposite": 6126,
      "rov": 6127,
      "udi": 6128,
      "dial": 6129,
      "AT": 6130,
      "boy": 6131,
      "finally": 6132,
      "luxury": 6133,
      "Stev": 6134,
      "need": 6135,
      "Farm": 6136,
      "sort": 6137,
      "component": 6138,
      "Luther": 6139,
      "defense": 6140,
      "formula": 6141,
      "Transportation": 6142,
      "Ross": 6143,
      "deb": 6144,
      "premier": 6145,
      "hang": 6146,
      "basic": 6147,
      "innov": 6148,
      "internationally": 6149,
      "tracks": 6150,
      "Ped": 6151,
      "articles": 6152,
      "suffer": 6153,
      "Fern": 6154,
      "measure": 6155,
      "franch": 6156,
      "mem": 6157,
      "1940s": 6158,
      "heavily": 6159,
      "words": 6160,
      "ession": 6161,
      "settled": 6162,
      "quick": 6163,
      "seventh": 6164,
      "Agency": 6165,
      "iaz": 6166,
      "emberg": 6167,
      "Ancient": 6168,
      "defensive": 6169,
      "Montana": 6170,
      "value": 6171,
      "unct": 6172,
      "oty": 6173,
      "submarine": 6174,
      "1937": 6175,
      "Labour": 6176,
      "environmental": 6177,
      "medals": 6178,
      "spok": 6179,
      "Karl": 6180,
      "itan": 6181,
      "Camer": 6182,
      "completely": 6183,
      "Brand": 6184,
      "Tre": 6185,
      "Roy": 6186,
      "Clar": 6187,
      "tennis": 6188,
      "nan": 6189,
      "scheduled": 6190,
      "pa": 6191,
      "gallery": 6192,
      "Radio": 6193,
      "Cambridge": 6194,
      "Somer": 6195,
      "opher": 6196,
      "lington": 6197,
      "produces": 6198,
      "merchant": 6199,
      "erview": 6200,
      "bounded": 6201,
      "publisher": 6202,
      "knowled": 6203,
      "suppl": 6204,
      "Boliv": 6205,
      "efforts": 6206,
      "Master": 6207,
      "reference": 6208,
      "developing": 6209,
      "fix": 6210,
      "Bulgaria": 6211,
      "Georgian": 6212,
      "1925": 6213,
      "statue": 6214,
      "pale": 6215,
      "eva": 6216,
      "response": 6217,
      "jab": 6218,
      "phen": 6219,
      "pressure": 6220,
      "aca": 6221,
      "compact": 6222,
      "21st": 6223,
      "1901": 6224,
      "wright": 6225,
      "Yugoslav": 6226,
      "Tu": 6227,
      "Downtown": 6228,
      "orig": 6229,
      "Shah": 6230,
      "creating": 6231,
      "Pierre": 6232,
      "purchased": 6233,
      "prevent": 6234,
      "pick": 6235,
      "Alfred": 6236,
      "cav": 6237,
      "heads": 6238,
      "Alps": 6239,
      "clubs": 6240,
      "Crown": 6241,
      "ribe": 6242,
      "levard": 6243,
      "gers": 6244,
      "Norman": 6245,
      "fest": 6246,
      "Jim": 6247,
      "ache": 6248,
      "sper": 6249,
      "ku": 6250,
      "label": 6251,
      "maximum": 6252,
      "infr": 6253,
      "crete": 6254,
      "diesel": 6255,
      "conducted": 6256,
      "You": 6257,
      "entertainment": 6258,
      "Ridge": 6259,
      "zhou": 6260,
      "hub": 6261,
      "1934": 6262,
      "holm": 6263,
      "usual": 6264,
      "1903": 6265,
      "Ker": 6266,
      "Between": 6267,
      "satell": 6268,
      "match": 6269,
      "ault": 6270,
      "ieth": 6271,
      "diffic": 6272,
      "130": 6273,
      "ester": 6274,
      "suburban": 6275,
      "ceremon": 6276,
      "Chen": 6277,
      "mud": 6278,
      "celebrated": 6279,
      "vice": 6280,
      "perform": 6281,
      "170": 6282,
      "analysis": 6283,
      "emen": 6284,
      "extr": 6285,
      "dorf": 6286,
      "banded": 6287,
      "renowned": 6288,
      "adi": 6289,
      "transition": 6290,
      "goods": 6291,
      "descend": 6292,
      "encompasses": 6293,
      "technique": 6294,
      "equival": 6295,
      "youth": 6296,
      "Ali": 6297,
      "Richmond": 6298,
      "Kat": 6299,
      "shot": 6300,
      "DC": 6301,
      "ante": 6302,
      "cup": 6303,
      "kar": 6304,
      "activated": 6305,
      "separated": 6306,
      "Kel": 6307,
      "ttemberg": 6308,
      "Hawaii": 6309,
      "borne": 6310,
      "Ay": 6311,
      "Orle": 6312,
      "ayed": 6313,
      "spons": 6314,
      "factory": 6315,
      "scientist": 6316,
      "ista": 6317,
      "allowed": 6318,
      "ector": 6319,
      "servatory": 6320,
      "Through": 6321,
      "boundaries": 6322,
      "suggest": 6323,
      "civilian": 6324,
      "internal": 6325,
      "Byzantine": 6326,
      "Transit": 6327,
      "soon": 6328,
      "Constitution": 6329,
      "Wurttemberg": 6330,
      "odor": 6331,
      "turned": 6332,
      "Rud": 6333,
      "Confederate": 6334,
      "Kenn": 6335,
      "ouver": 6336,
      "extrem": 6337,
      "sust": 6338,
      "700": 6339,
      "osh": 6340,
      "advanced": 6341,
      "Bed": 6342,
      "coming": 6343,
      "Cu": 6344,
      "Ivan": 6345,
      "Christop": 6346,
      "1931": 6347,
      "ulated": 6348,
      "Sac": 6349,
      "thetic": 6350,
      "mingham": 6351,
      "lasted": 6352,
      "Jane": 6353,
      "ardo": 6354,
      "Prod": 6355,
      "Rem": 6356,
      "Bohem": 6357,
      "Aer": 6358,
      "Market": 6359,
      "Je": 6360,
      "Stone": 6361,
      "portions": 6362,
      "strateg": 6363,
      "Fleet": 6364,
      "icas": 6365,
      "Proper": 6366,
      "iast": 6367,
      "scra": 6368,
      "instruments": 6369,
      "'.": 6370,
      "1926": 6371,
      "Cycl": 6372,
      "colony": 6373,
      "Dublin": 6374,
      "Though": 6375,
      "volunte": 6376,
      "focused": 6377,
      "perennial": 6378,
      "Limited": 6379,
      "Matthew": 6380,
      "Vanc": 6381,
      "lywood": 6382,
      "furn": 6383,
      "overlook": 6384,
      "urg": 6385,
      "partly": 6386,
      "Contin": 6387,
      "fun": 6388,
      "fordshire": 6389,
      "Nature": 6390,
      "Works": 6391,
      "assic": 6392,
      "overview": 6393,
      "sugar": 6394,
      "Loire": 6395,
      "iser": 6396,
      "rh": 6397,
      "Mol": 6398,
      "occasion": 6399,
      "uri": 6400,
      "chemistry": 6401,
      "employed": 6402,
      "resear": 6403,
      "follows": 6404,
      "linked": 6405,
      "ready": 6406,
      "Punjab": 6407,
      "dal": 6408,
      "nineteenth": 6409,
      "Int": 6410,
      "battles": 6411,
      "Currently": 6412,
      "Birmingham": 6413,
      "Project": 6414,
      "Buc": 6415,
      "SR": 6416,
      "cad": 6417,
      "agas": 6418,
      "ipelago": 6419,
      "Orleans": 6420,
      "laid": 6421,
      "release": 6422,
      "Culture": 6423,
      "leadership": 6424,
      "immediately": 6425,
      "lined": 6426,
      "peoples": 6427,
      "recognition": 6428,
      "edy": 6429,
      "Vin": 6430,
      "software": 6431,
      "headed": 6432,
      "ruins": 6433,
      "Wrest": 6434,
      "isp": 6435,
      "Vancouver": 6436,
      "anyon": 6437,
      "Somerset": 6438,
      "Isle": 6439,
      "Child": 6440,
      "underground": 6441,
      "Cret": 6442,
      "roof": 6443,
      "Hond": 6444,
      "Commander": 6445,
      "89": 6446,
      "1909": 6447,
      "failed": 6448,
      "universities": 6449,
      "cyclist": 6450,
      "Belarus": 6451,
      "Capital": 6452,
      "geometry": 6453,
      "alphabet": 6454,
      "inventor": 6455,
      "Gian": 6456,
      "partner": 6457,
      "Hok": 6458,
      "electoral": 6459,
      "Bob": 6460,
      "Antar": 6461,
      "bordered": 6462,
      "snow": 6463,
      "ecess": 6464,
      "eas": 6465,
      "Artillery": 6466,
      "reservoir": 6467,
      "Business": 6468,
      "Pope": 6469,
      "vic": 6470,
      "Representative": 6471,
      "Among": 6472,
      "defender": 6473,
      "sole": 6474,
      "map": 6475,
      "Pont": 6476,
      "ibed": 6477,
      "populations": 6478,
      "heat": 6479,
      "inger": 6480,
      "stable": 6481,
      "target": 6482,
      "Wilson": 6483,
      "Yam": 6484,
      "bicy": 6485,
      "Northwest": 6486,
      "Sem": 6487,
      "Prim": 6488,
      "ello": 6489,
      "novels": 6490,
      "liquid": 6491,
      "erected": 6492,
      "consecut": 6493,
      "ffalo": 6494,
      "Administration": 6495,
      "Hamburg": 6496,
      "accounts": 6497,
      "vocalist": 6498,
      "buses": 6499,
      "philanthropist": 6500,
      "Vel": 6501,
      "Ple": 6502,
      "NASA": 6503,
      "Normand": 6504,
      "Rug": 6505,
      "gov": 6506,
      "Slovakia": 6507,
      "storms": 6508,
      "ige": 6509,
      "haus": 6510,
      "journal": 6511,
      "yme": 6512,
      "oft": 6513,
      "feld": 6514,
      "kept": 6515,
      "Protest": 6516,
      "inist": 6517,
      "classes": 6518,
      "Grande": 6519,
      "briefly": 6520,
      "Electric": 6521,
      "Tol": 6522,
      "enos": 6523,
      "abol": 6524,
      "altitude": 6525,
      "Athen": 6526,
      "simple": 6527,
      "jurisdiction": 6528,
      "Bot": 6529,
      "wave": 6530,
      "Stand": 6531,
      "1907": 6532,
      "Kings": 6533,
      "1906": 6534,
      "Anthony": 6535,
      "los": 6536,
      "fine": 6537,
      "oblast": 6538,
      "rebuilt": 6539,
      "Conservation": 6540,
      "Guang": 6541,
      "hyper": 6542,
      "results": 6543,
      "Captain": 6544,
      "oba": 6545,
      "Indonesian": 6546,
      "fell": 6547,
      "yan": 6548,
      "74": 6549,
      "going": 6550,
      "ierra": 6551,
      "deploy": 6552,
      "slow": 6553,
      "helm": 6554,
      "housed": 6555,
      "NBA": 6556,
      "restored": 6557,
      "Basin": 6558,
      "Allen": 6559,
      "philosopher": 6560,
      "roots": 6561,
      "nik": 6562,
      "Sask": 6563,
      "continu": 6564,
      "ums": 6565,
      "allows": 6566,
      "Kim": 6567,
      "utt": 6568,
      "suburbs": 6569,
      "expansion": 6570,
      "commanded": 6571,
      "orient": 6572,
      "evolution": 6573,
      "ech": 6574,
      "1904": 6575,
      "Kin": 6576,
      "AA": 6577,
      "online": 6578,
      "collabor": 6579,
      "Dallas": 6580,
      "Costa": 6581,
      "patron": 6582,
      "Wat": 6583,
      "SO": 6584,
      "leton": 6585,
      "1902": 6586,
      "require": 6587,
      "Vas": 6588,
      "chall": 6589,
      "inson": 6590,
      "Security": 6591,
      "Fab": 6592,
      "obtain": 6593,
      "equivalent": 6594,
      "umed": 6595,
      "nataka": 6596,
      "possibly": 6597,
      "enh": 6598,
      "Na": 6599,
      "Mit": 6600,
      "Execut": 6601,
      "iable": 6602,
      "trained": 6603,
      "Karnataka": 6604,
      "Fur": 6605,
      "cart": 6606,
      "Cypr": 6607,
      "Ll": 6608,
      "NCA": 6609,
      "SCAR": 6610,
      "carrier": 6611,
      "Salt": 6612,
      "Commons": 6613,
      "Racing": 6614,
      "Glasgow": 6615,
      "uff": 6616,
      "locally": 6617,
      "Christopher": 6618,
      "Gun": 6619,
      "rows": 6620,
      "Jordan": 6621,
      "Cop": 6622,
      "eor": 6623,
      "Lang": 6624,
      "address": 6625,
      "typical": 6626,
      "origins": 6627,
      "denomin": 6628,
      "tele": 6629,
      "dated": 6630,
      "amateur": 6631,
      "Municipal": 6632,
      "ahead": 6633,
      "ui": 6634,
      "ears": 6635,
      "commod": 6636,
      "compared": 6637,
      "atorial": 6638,
      "dinosaur": 6639,
      "hammad": 6640,
      "Agric": 6641,
      "ferry": 6642,
      "Rose": 6643,
      "brick": 6644,
      "Mr": 6645,
      "interpre": 6646,
      "contributed": 6647,
      "len": 6648,
      "aja": 6649,
      "Saskat": 6650,
      "Pra": 6651,
      "mers": 6652,
      "always": 6653,
      "depart": 6654,
      "NASCAR": 6655,
      "Croatian": 6656,
      "Friedrich": 6657,
      "Orange": 6658,
      "1890": 6659,
      "beyond": 6660,
      "clothing": 6661,
      "abandoned": 6662,
      "71": 6663,
      "theor": 6664,
      "het": 6665,
      "orous": 6666,
      "markets": 6667,
      "recipient": 6668,
      "',": 6669,
      "mor": 6670,
      "zy": 6671,
      "News": 6672,
      "restaurants": 6673,
      "las": 6674,
      "Florence": 6675,
      "performances": 6676,
      "Bulgarian": 6677,
      "plain": 6678,
      "metre": 6679,
      "reform": 6680,
      "conv": 6681,
      "ML": 6682,
      "stood": 6683,
      "news": 6684,
      "Wrestling": 6685,
      "haw": 6686,
      "thin": 6687,
      "agriculture": 6688,
      "phase": 6689,
      "Sid": 6690,
      "cargo": 6691,
      "performing": 6692,
      "attention": 6693,
      "Ts": 6694,
      "therefore": 6695,
      "Jam": 6696,
      "onaut": 6697,
      "Monte": 6698,
      "judge": 6699,
      "Ren": 6700,
      "Afghanistan": 6701,
      "ghai": 6702,
      "Silver": 6703,
      "relationship": 6704,
      "Liver": 6705,
      "consecutive": 6706,
      "slightly": 6707,
      "Brooklyn": 6708,
      "Taylor": 6709,
      "coat": 6710,
      "twin": 6711,
      "ologies": 6712,
      "destination": 6713,
      "depth": 6714,
      "Icel": 6715,
      "gom": 6716,
      "resistance": 6717,
      "Call": 6718,
      "professionally": 6719,
      "ichi": 6720,
      "describes": 6721,
      "fuel": 6722,
      "electrical": 6723,
      "subsequent": 6724,
      "Executive": 6725,
      "Lyn": 6726,
      "sec": 6727,
      "Canton": 6728,
      "icon": 6729,
      "Amster": 6730,
      "pin": 6731,
      "homes": 6732,
      "Hug": 6733,
      "iped": 6734,
      "parties": 6735,
      "manor": 6736,
      "ellation": 6737,
      "prefecture": 6738,
      "Junior": 6739,
      "Thai": 6740,
      "opes": 6741,
      "Jefferson": 6742,
      "aro": 6743,
      "ims": 6744,
      "philosophy": 6745,
      "Amsterdam": 6746,
      "adap": 6747,
      "characteristics": 6748,
      "SI": 6749,
      "Along": 6750,
      "inction": 6751,
      "Iceland": 6752,
      "RT": 6753,
      "deal": 6754,
      "Ecu": 6755,
      "Springs": 6756,
      "retire": 6757,
      "Munich": 6758,
      "Bahn": 6759,
      "stages": 6760,
      "Hurricane": 6761,
      "joining": 6762,
      "Network": 6763,
      "mentioned": 6764,
      "MG": 6765,
      "mina": 6766,
      "skyscra": 6767,
      "tip": 6768,
      "Henri": 6769,
      "itals": 6770,
      "disput": 6771,
      "Treat": 6772,
      "bles": 6773,
      "ason": 6774,
      "congress": 6775,
      "presid": 6776,
      "venture": 6777,
      "angered": 6778,
      "bass": 6779,
      "Bac": 6780,
      "joy": 6781,
      "avia": 6782,
      "survey": 6783,
      "virt": 6784,
      "dess": 6785,
      "jord": 6786,
      "unknown": 6787,
      "uniform": 6788,
      "Mold": 6789,
      "batter": 6790,
      "Ron": 6791,
      "priest": 6792,
      "Norfolk": 6793,
      "crop": 6794,
      "hors": 6795,
      "rob": 6796,
      "ucture": 6797,
      "introduction": 6798,
      "determin": 6799,
      "Wolf": 6800,
      "Ethiop": 6801,
      "aho": 6802,
      "Communist": 6803,
      "safety": 6804,
      "begins": 6805,
      "Ecuador": 6806,
      "items": 6807,
      "too": 6808,
      "writers": 6809,
      "hens": 6810,
      "helic": 6811,
      "Bosnia": 6812,
      "resources": 6813,
      "Delhi": 6814,
      "orchid": 6815,
      "oct": 6816,
      "kes": 6817,
      "olo": 6818,
      "attraction": 6819,
      "thirty": 6820,
      "Urban": 6821,
      "advis": 6822,
      "rises": 6823,
      "cou": 6824,
      "assy": 6825,
      "ails": 6826,
      "anga": 6827,
      "cia": 6828,
      "Indo": 6829,
      "parallel": 6830,
      "ska": 6831,
      "connection": 6832,
      "Shanghai": 6833,
      "Qing": 6834,
      "aft": 6835,
      "quant": 6836,
      "Sky": 6837,
      "chrom": 6838,
      "Howard": 6839,
      "icist": 6840,
      "ultim": 6841,
      "potential": 6842,
      "chapel": 6843,
      "Sr": 6844,
      "mund": 6845,
      "initial": 6846,
      "Boulevard": 6847,
      "fellow": 6848,
      "adow": 6849,
      "Castile": 6850,
      "dol": 6851,
      "factor": 6852,
      "uster": 6853,
      "Lithuanian": 6854,
      "Congo": 6855,
      "bark": 6856,
      "medicine": 6857,
      "Bab": 6858,
      "lift": 6859,
      "cue": 6860,
      "substant": 6861,
      "ographic": 6862,
      "abbre": 6863,
      "Chester": 6864,
      "identity": 6865,
      "mals": 6866,
      "uded": 6867,
      "Gram": 6868,
      "installed": 6869,
      "Dynasty": 6870,
      "Hom": 6871,
      "Vic": 6872,
      "Sound": 6873,
      "younger": 6874,
      "components": 6875,
      "vine": 6876,
      "yu": 6877,
      "Sor": 6878,
      "Human": 6879,
      "thal": 6880,
      "ranking": 6881,
      "Cretaceous": 6882,
      "Hav": 6883,
      "Log": 6884,
      "mosp": 6885,
      "Lux": 6886,
      "Ful": 6887,
      "Hudson": 6888,
      "Vil": 6889,
      "ivic": 6890,
      "identify": 6891,
      "legend": 6892,
      "73": 6893,
      "orate": 6894,
      "Only": 6895,
      "Design": 6896,
      "ashi": 6897,
      "illo": 6898,
      "smallest": 6899,
      "newly": 6900,
      "Gord": 6901,
      "evolved": 6902,
      "enzyme": 6903,
      "quad": 6904,
      "util": 6905,
      "featuring": 6906,
      "Wyoming": 6907,
      "hism": 6908,
      "TO": 6909,
      "difficult": 6910,
      "Sic": 6911,
      "Hig": 6912,
      "inary": 6913,
      "Staff": 6914,
      "wars": 6915,
      "Fri": 6916,
      "hunting": 6917,
      "SU": 6918,
      "phoon": 6919,
      "aved": 6920,
      "Tas": 6921,
      "udes": 6922,
      "hectares": 6923,
      "workers": 6924,
      "Petersburg": 6925,
      "Mission": 6926,
      "Sport": 6927,
      "giant": 6928,
      "Allied": 6929,
      "Adela": 6930,
      "Ghana": 6931,
      "contract": 6932,
      "technical": 6933,
      "lee": 6934,
      "comedian": 6935,
      "Our": 6936,
      "mythology": 6937,
      "Aar": 6938,
      "Tang": 6939,
      "arrang": 6940,
      "Tropical": 6941,
      "eras": 6942,
      "yet": 6943,
      "crosses": 6944,
      "tub": 6945,
      "Columbus": 6946,
      "iidae": 6947,
      "contrast": 6948,
      "NCAA": 6949,
      "Lakes": 6950,
      "Zur": 6951,
      "Harry": 6952,
      "fluence": 6953,
      "operational": 6954,
      "tan": 6955,
      "comune": 6956,
      "Palestinian": 6957,
      "iac": 6958,
      "Cornwall": 6959,
      "influences": 6960,
      "CEO": 6961,
      "Plant": 6962,
      "Third": 6963,
      "fossils": 6964,
      "Palatin": 6965,
      "Hesse": 6966,
      "Hell": 6967,
      "bush": 6968,
      "defence": 6969,
      "sets": 6970,
      "processes": 6971,
      "Wol": 6972,
      "movements": 6973,
      "canal": 6974,
      "planet": 6975,
      "Palatinate": 6976,
      "gain": 6977,
      "uscr": 6978,
      "congreg": 6979,
      "Filip": 6980,
      "squad": 6981,
      "overe": 6982,
      "bone": 6983,
      "mis": 6984,
      "orders": 6985,
      "moths": 6986,
      "1898": 6987,
      "Nak": 6988,
      "mosque": 6989,
      "BM": 6990,
      "Bun": 6991,
      "whether": 6992,
      "occas": 6993,
      "sections": 6994,
      "shops": 6995,
      "acks": 6996,
      "partially": 6997,
      "ologists": 6998,
      "ci": 6999,
      "temporary": 7000,
      "Bour": 7001,
      "Chry": 7002,
      "Jews": 7003,
      "motion": 7004,
      "Liverpool": 7005,
      "Dy": 7006,
      "milit": 7007,
      "Patrick": 7008,
      "walk": 7009,
      "renov": 7010,
      "authorities": 7011,
      "Shar": 7012,
      "Gate": 7013,
      "adapt": 7014,
      "describe": 7015,
      "Family": 7016,
      "drain": 7017,
      "Deut": 7018,
      "Bristol": 7019,
      "benef": 7020,
      "Plan": 7021,
      "restrial": 7022,
      "meat": 7023,
      "selection": 7024,
      "scription": 7025,
      "screenwriter": 7026,
      "guns": 7027,
      "selling": 7028,
      "Dub": 7029,
      "iano": 7030,
      "Leeds": 7031,
      "theme": 7032,
      "ranges": 7033,
      "playwright": 7034,
      "starred": 7035,
      "format": 7036,
      "linton": 7037,
      "coup": 7038,
      "liberal": 7039,
      "bred": 7040,
      "Dom": 7041,
      "Program": 7042,
      "SP": 7043,
      "Vlad": 7044,
      "tha": 7045,
      "Venice": 7046,
      "Toyota": 7047,
      "phosp": 7048,
      "ez": 7049,
      "alia": 7050,
      "neo": 7051,
      "Rand": 7052,
      "breeding": 7053,
      "Glen": 7054,
      "mechanical": 7055,
      "bring": 7056,
      "Chairman": 7057,
      "Sierra": 7058,
      "axy": 7059,
      "comprising": 7060,
      "franchise": 7061,
      "temperate": 7062,
      "Americas": 7063,
      "Simon": 7064,
      "Armenia": 7065,
      "Cold": 7066,
      "uki": 7067,
      "Cuba": 7068,
      "Ober": 7069,
      "uties": 7070,
      "shoot": 7071,
      "freight": 7072,
      "Kazakh": 7073,
      "Adelaide": 7074,
      "Saf": 7075,
      "condition": 7076,
      "shortly": 7077,
      "reaching": 7078,
      "flav": 7079,
      "Abd": 7080,
      "Salv": 7081,
      "problems": 7082,
      "emerged": 7083,
      "murder": 7084,
      "Conservative": 7085,
      "agn": 7086,
      "concert": 7087,
      "pup": 7088,
      "inee": 7089,
      "keeper": 7090,
      "Love": 7091,
      "Austin": 7092,
      "ocene": 7093,
      "bee": 7094,
      "Until": 7095,
      "Nation": 7096,
      "Davis": 7097,
      "iner": 7098,
      "org": 7099,
      "Margar": 7100,
      "astructure": 7101,
      "leyball": 7102,
      "Horn": 7103,
      "motorcycle": 7104,
      "volume": 7105,
      "Jur": 7106,
      "mammals": 7107,
      "Management": 7108,
      "championships": 7109,
      "BBC": 7110,
      "etime": 7111,
      "supporting": 7112,
      "ceremony": 7113,
      "imperial": 7114,
      "Champ": 7115,
      "phone": 7116,
      "Tak": 7117,
      "oles": 7118,
      "minster": 7119,
      "Ast": 7120,
      "threatened": 7121,
      "ruler": 7122,
      "nickname": 7123,
      "Bible": 7124,
      "Tob": 7125,
      "iny": 7126,
      "Poly": 7127,
      "visited": 7128,
      "Buffalo": 7129,
      "geme": 7130,
      "py": 7131,
      "iture": 7132,
      "planning": 7133,
      "Benj": 7134,
      "mathematician": 7135,
      "pic": 7136,
      "Gam": 7137,
      "pel": 7138,
      "links": 7139,
      "1891": 7140,
      "give": 7141,
      "centimet": 7142,
      "Desert": 7143,
      "Sche": 7144,
      "Run": 7145,
      "dancer": 7146,
      "scene": 7147,
      "zi": 7148,
      "esque": 7149,
      "electron": 7150,
      "140": 7151,
      "reput": 7152,
      "Convention": 7153,
      "oh": 7154,
      "vision": 7155,
      "86": 7156,
      "Normandy": 7157,
      "Thor": 7158,
      "accepted": 7159,
      "weapons": 7160,
      "Zam": 7161,
      "shel": 7162,
      "legislative": 7163,
      "thy": 7164,
      "Phoen": 7165,
      "centers": 7166,
      "overeign": 7167,
      "removed": 7168,
      "doctor": 7169,
      "done": 7170,
      "ificial": 7171,
      "Adam": 7172,
      "spoken": 7173,
      "Len": 7174,
      "liz": 7175,
      "mounted": 7176,
      "Madrid": 7177,
      "confluence": 7178,
      "inch": 7179,
      "brigade": 7180,
      "haps": 7181,
      "oes": 7182,
      "torn": 7183,
      "Pale": 7184,
      "laws": 7185,
      "fortress": 7186,
      "onds": 7187,
      "Mans": 7188,
      "abo": 7189,
      "Protestant": 7190,
      "110": 7191,
      "Luis": 7192,
      "netic": 7193,
      "carto": 7194,
      "wrestler": 7195,
      "Ele": 7196,
      "tomb": 7197,
      "Hem": 7198,
      "triang": 7199,
      "biological": 7200,
      "Benjamin": 7201,
      "recre": 7202,
      "spac": 7203,
      "bis": 7204,
      "soil": 7205,
      "Branch": 7206,
      "conquest": 7207,
      "ogne": 7208,
      "got": 7209,
      "researcher": 7210,
      "recognised": 7211,
      "theat": 7212,
      "collected": 7213,
      "Christianity": 7214,
      "variants": 7215,
      "avi": 7216,
      "otherwise": 7217,
      "Chapel": 7218,
      "atures": 7219,
      "shor": 7220,
      "disbanded": 7221,
      "Thames": 7222,
      "lun": 7223,
      "correspond": 7224,
      "Madagas": 7225,
      "Saints": 7226,
      "Estonia": 7227,
      "chart": 7228,
      "skin": 7229,
      "Byd": 7230,
      "Bernard": 7231,
      "Ward": 7232,
      "lon": 7233,
      "idal": 7234,
      "Pict": 7235,
      "comic": 7236,
      "Gardens": 7237,
      "article": 7238,
      "pink": 7239,
      "classic": 7240,
      "moist": 7241,
      "oven": 7242,
      "eway": 7243,
      "ying": 7244,
      "1895": 7245,
      "personality": 7246,
      "Anna": 7247,
      "LA": 7248,
      "exhibition": 7249,
      "Tig": 7250,
      "else": 7251,
      "Cabinet": 7252,
      "extens": 7253,
      "experience": 7254,
      "turb": 7255,
      "expected": 7256,
      "goszcz": 7257,
      "molecular": 7258,
      "zon": 7259,
      "Bydgoszcz": 7260,
      "fungus": 7261,
      "Scotia": 7262,
      "bright": 7263,
      "bled": 7264,
      "Aber": 7265,
      "merce": 7266,
      "copal": 7267,
      "minutes": 7268,
      "grey": 7269,
      "Macedonia": 7270,
      "dimens": 7271,
      "enberg": 7272,
      "eton": 7273,
      "teaching": 7274,
      "Urug": 7275,
      "athlete": 7276,
      "Cook": 7277,
      "popularity": 7278,
      "Sussex": 7279,
      "Phill": 7280,
      "Rab": 7281,
      "rival": 7282,
      "enic": 7283,
      "osen": 7284,
      "context": 7285,
      "promote": 7286,
      "Nicholas": 7287,
      "twentieth": 7288,
      "Expedition": 7289,
      "Harbor": 7290,
      "prime": 7291,
      "Constant": 7292,
      "Pil": 7293,
      "venues": 7294,
      "outdoor": 7295,
      "Estab": 7296,
      "preced": 7297,
      "Urugu": 7298,
      "vast": 7299,
      "thing": 7300,
      "expedition": 7301,
      "iba": 7302,
      "1896": 7303,
      "trol": 7304,
      "Warsaw": 7305,
      "Rivers": 7306,
      "lighthouse": 7307,
      "analy": 7308,
      "imin": 7309,
      "estrian": 7310,
      "ithic": 7311,
      "devices": 7312,
      "eighth": 7313,
      "olars": 7314,
      "involving": 7315,
      "Rhode": 7316,
      "paras": 7317,
      "Fernand": 7318,
      "Vor": 7319,
      "Denver": 7320,
      "ilica": 7321,
      "iri": 7322,
      "anner": 7323,
      "settlements": 7324,
      "Syria": 7325,
      "Pav": 7326,
      "acht": 7327,
      "investig": 7328,
      "Morocco": 7329,
      "vard": 7330,
      "destr": 7331,
      "approach": 7332,
      "NHL": 7333,
      "92": 7334,
      "CH": 7335,
      "drawn": 7336,
      "BCE": 7337,
      "integrated": 7338,
      "quickly": 7339,
      "occurring": 7340,
      "Jama": 7341,
      "Madagascar": 7342,
      "Times": 7343,
      "offer": 7344,
      "Wilhelm": 7345,
      "rics": 7346,
      "Gujar": 7347,
      "confused": 7348,
      "recreational": 7349,
      "Unlike": 7350,
      "communications": 7351,
      "oga": 7352,
      "ondisse": 7353,
      "Services": 7354,
      "custom": 7355,
      "gather": 7356,
      "iod": 7357,
      "Lane": 7358,
      "implement": 7359,
      "hra": 7360,
      "kilometre": 7361,
      "Cit": 7362,
      "Fac": 7363,
      "Pomer": 7364,
      "aled": 7365,
      "ells": 7366,
      "brothers": 7367,
      "neighborhoods": 7368,
      "Sak": 7369,
      "gives": 7370,
      "igious": 7371,
      "manuscr": 7372,
      "granted": 7373,
      "aton": 7374,
      "driving": 7375,
      "ternet": 7376,
      "extremely": 7377,
      "emphas": 7378,
      "thouse": 7379,
      "96": 7380,
      "ishi": 7381,
      "chestra": 7382,
      "communication": 7383,
      "pon": 7384,
      "Westphal": 7385,
      "landscapes": 7386,
      "Storm": 7387,
      "evich": 7388,
      "classification": 7389,
      "onymous": 7390,
      "frame": 7391,
      "iring": 7392,
      "warfare": 7393,
      "Cow": 7394,
      "iders": 7395,
      "Rugby": 7396,
      "alleg": 7397,
      "Chilean": 7398,
      "derness": 7399,
      "BT": 7400,
      "vian": 7401,
      "critical": 7402,
      "eye": 7403,
      "bast": 7404,
      "kov": 7405,
      "ente": 7406,
      "Doc": 7407,
      "Bry": 7408,
      "ashtra": 7409,
      "battalion": 7410,
      "Junction": 7411,
      "Barcel": 7412,
      "beetles": 7413,
      "Chamber": 7414,
      "aust": 7415,
      "launch": 7416,
      "capable": 7417,
      "Tele": 7418,
      "span": 7419,
      "modified": 7420,
      "bing": 7421,
      "landing": 7422,
      "ordered": 7423,
      "decorated": 7424,
      "skir": 7425,
      "happ": 7426,
      "terrestrial": 7427,
      "replace": 7428,
      "magn": 7429,
      "DNA": 7430,
      "taught": 7431,
      "crater": 7432,
      "Herze": 7433,
      "Movement": 7434,
      "oyd": 7435,
      "iller": 7436,
      "racy": 7437,
      "Bath": 7438,
      "1893": 7439,
      "concl": 7440,
      "hybrid": 7441,
      "aco": 7442,
      "subjects": 7443,
      "anmar": 7444,
      "corn": 7445,
      "verte": 7446,
      "Time": 7447,
      "cricket": 7448,
      "chamber": 7449,
      "apers": 7450,
      "satellite": 7451,
      "1000": 7452,
      "effic": 7453,
      "successfully": 7454,
      "halt": 7455,
      "atherine": 7456,
      "circuit": 7457,
      "nucle": 7458,
      "reis": 7459,
      "Frances": 7460,
      "Tus": 7461,
      "Operations": 7462,
      "cot": 7463,
      "Sha": 7464,
      "Herzegov": 7465,
      "Now": 7466,
      "flour": 7467,
      "Alt": 7468,
      "attended": 7469,
      "soccer": 7470,
      "Zurich": 7471,
      "ulu": 7472,
      "dean": 7473,
      "uttle": 7474,
      "polic": 7475,
      "soft": 7476,
      "RI": 7477,
      "veter": 7478,
      "mineral": 7479,
      "significantly": 7480,
      "Malta": 7481,
      "forcement": 7482,
      "oku": 7483,
      "camera": 7484,
      "stems": 7485,
      "translated": 7486,
      "enny": 7487,
      "Reserv": 7488,
      "greatly": 7489,
      "Type": 7490,
      "81": 7491,
      "Mak": 7492,
      "itic": 7493,
      "Mond": 7494,
      "lob": 7495,
      "Bog": 7496,
      "Landmarks": 7497,
      "retirement": 7498,
      "Chi": 7499,
      "Colomb": 7500,
      "Mall": 7501,
      "sam": 7502,
      "este": 7503,
      "Syn": 7504,
      "iker": 7505,
      "mediate": 7506,
      "exer": 7507,
      "passing": 7508,
      "Cinc": 7509,
      "Dh": 7510,
      "depos": 7511,
      "Bird": 7512,
      "jet": 7513,
      "insky": 7514,
      "Hop": 7515,
      "sales": 7516,
      "Northeast": 7517,
      "architects": 7518,
      "experimental": 7519,
      "milk": 7520,
      "lu": 7521,
      "Trad": 7522,
      "knowledge": 7523,
      "unusual": 7524,
      "executed": 7525,
      "itors": 7526,
      "Historically": 7527,
      "marketed": 7528,
      "money": 7529,
      "adapted": 7530,
      "1889": 7531,
      "Pir": 7532,
      "terminal": 7533,
      "boys": 7534,
      "Kash": 7535,
      "organised": 7536,
      "extension": 7537,
      "perhaps": 7538,
      "wee": 7539,
      "grees": 7540,
      "ropol": 7541,
      "discovery": 7542,
      "omy": 7543,
      "promoted": 7544,
      "ving": 7545,
      "sons": 7546,
      "illes": 7547,
      "capture": 7548,
      "Din": 7549,
      "stown": 7550,
      "Sin": 7551,
      "Yan": 7552,
      "export": 7553,
      "allowing": 7554,
      "observed": 7555,
      "Chev": 7556,
      "Paulo": 7557,
      "offee": 7558,
      "1899": 7559,
      "omotive": 7560,
      "ancell": 7561,
      "thick": 7562,
      "opposed": 7563,
      "Myanmar": 7564,
      "symbols": 7565,
      "Nott": 7566,
      "alymp": 7567,
      "dominated": 7568,
      "Roll": 7569,
      "si": 7570,
      "Together": 7571,
      "fict": 7572,
      "junior": 7573,
      "arena": 7574,
      "wil": 7575,
      "compete": 7576,
      "Pod": 7577,
      "find": 7578,
      "itionally": 7579,
      "sculptures": 7580,
      "Ye": 7581,
      "Hur": 7582,
      "sevent": 7583,
      "assistant": 7584,
      "Lebanon": 7585,
      "desp": 7586,
      "continental": 7587,
      "courses": 7588,
      "Model": 7589,
      "poem": 7590,
      "depending": 7591,
      "Milan": 7592,
      "Ny": 7593,
      "proxim": 7594,
      "Epis": 7595,
      "bacter": 7596,
      "opposition": 7597,
      "Rober": 7598,
      "lig": 7599,
      "cool": 7600,
      "storage": 7601,
      "commuter": 7602,
      "clan": 7603,
      "achi": 7604,
      "Cincinn": 7605,
      "cinema": 7606,
      "Zone": 7607,
      "chewan": 7608,
      "Joint": 7609,
      "invented": 7610,
      "Herzegovina": 7611,
      "truck": 7612,
      "spans": 7613,
      "oya": 7614,
      "carrying": 7615,
      "Athens": 7616,
      "rar": 7617,
      "mini": 7618,
      "Row": 7619,
      "Chand": 7620,
      "ingred": 7621,
      "Hollywood": 7622,
      "colors": 7623,
      "iji": 7624,
      "Vietnamese": 7625,
      "ceased": 7626,
      "nominee": 7627,
      "sul": 7628,
      "1892": 7629,
      "cryst": 7630,
      "fant": 7631,
      "Ener": 7632,
      "Ship": 7633,
      "towers": 7634,
      "Rhineland": 7635,
      "Saskatchewan": 7636,
      "vac": 7637,
      "Treaty": 7638,
      "1897": 7639,
      "plans": 7640,
      "reduced": 7641,
      "Glou": 7642,
      "households": 7643,
      "Nu": 7644,
      "mansion": 7645,
      "Gust": 7646,
      "Paralymp": 7647,
      "affected": 7648,
      "pianist": 7649,
      "coordin": 7650,
      "cream": 7651,
      "extending": 7652,
      "Ig": 7653,
      "hydr": 7654,
      "holder": 7655,
      "regularly": 7656,
      "rub": 7657,
      "appearances": 7658,
      "hess": 7659,
      "Gallery": 7660,
      "orf": 7661,
      "berry": 7662,
      "Emer": 7663,
      "graphic": 7664,
      "Satur": 7665,
      "Mul": 7666,
      "Gloucester": 7667,
      "Friday": 7668,
      "1885": 7669,
      "annon": 7670,
      "Francois": 7671,
      "alco": 7672,
      "trav": 7673,
      "spiritu": 7674,
      "umberland": 7675,
      "LG": 7676,
      "outer": 7677,
      "contributing": 7678,
      "citizen": 7679,
      "cra": 7680,
      "tas": 7681,
      "Cincinnati": 7682,
      "RNA": 7683,
      "stones": 7684,
      "exclusively": 7685,
      "elli": 7686,
      "Wildlife": 7687,
      "Napoleon": 7688,
      "furt": 7689,
      "mitted": 7690,
      "Socialist": 7691,
      "stic": 7692,
      "maritime": 7693,
      "Harbour": 7694,
      "Continental": 7695,
      "medalist": 7696,
      "rim": 7697,
      "despite": 7698,
      "enjoy": 7699,
      "Glacier": 7700,
      "ondissement": 7701,
      "induct": 7702,
      "Organization": 7703,
      "dwell": 7704,
      "relative": 7705,
      "photographic": 7706,
      "uv": 7707,
      "Anti": 7708,
      "prepared": 7709,
      "receptor": 7710,
      "royer": 7711,
      "Nigeria": 7712,
      "cord": 7713,
      "derives": 7714,
      "aten": 7715,
      "wer": 7716,
      "Bes": 7717,
      "occasionally": 7718,
      "Palestine": 7719,
      "concrete": 7720,
      "Mosque": 7721,
      "arranged": 7722,
      "decom": 7723,
      "prest": 7724,
      "snake": 7725,
      "Campaign": 7726,
      "Dra": 7727,
      "apest": 7728,
      "offered": 7729,
      "Montgom": 7730,
      "cules": 7731,
      "temperature": 7732,
      "giving": 7733,
      "Perth": 7734,
      "Motors": 7735,
      "gemeinde": 7736,
      "rib": 7737,
      "usage": 7738,
      "spider": 7739,
      "incumbent": 7740,
      "edo": 7741,
      "Gon": 7742,
      "descript": 7743,
      "shares": 7744,
      "cultivated": 7745,
      "Categ": 7746,
      "Nel": 7747,
      "umes": 7748,
      "Maz": 7749,
      "Tir": 7750,
      "consul": 7751,
      "suffered": 7752,
      "variant": 7753,
      "gran": 7754,
      "endangered": 7755,
      "wildlife": 7756,
      "owners": 7757,
      "iper": 7758,
      "Canyon": 7759,
      "Archbishop": 7760,
      "1865": 7761,
      "Essex": 7762,
      "Westphalia": 7763,
      "Barcelona": 7764,
      "Mach": 7765,
      "iful": 7766,
      "1886": 7767,
      "arter": 7768,
      "desert": 7769,
      "asia": 7770,
      "geon": 7771,
      "Charlot": 7772,
      "attributed": 7773,
      "IC": 7774,
      "Aviation": 7775,
      "aspects": 7776,
      "Eg": 7777,
      "degrees": 7778,
      "Blo": 7779,
      "learning": 7780,
      "nearest": 7781,
      "Ottawa": 7782,
      "composition": 7783,
      "saint": 7784,
      "favor": 7785,
      "Tasman": 7786,
      "atem": 7787,
      "viewed": 7788,
      "ffield": 7789,
      "Ring": 7790,
      "Turn": 7791,
      "conference": 7792,
      "Schles": 7793,
      "enger": 7794,
      "continue": 7795,
      "Opera": 7796,
      "strength": 7797,
      "Survey": 7798,
      "discuss": 7799,
      "rhy": 7800,
      "ampa": 7801,
      "perior": 7802,
      "causes": 7803,
      "Disney": 7804,
      "Piet": 7805,
      "smooth": 7806,
      "possess": 7807,
      "wrestling": 7808,
      "Rest": 7809,
      "Princip": 7810,
      "kow": 7811,
      "Work": 7812,
      "comment": 7813,
      "Adams": 7814,
      "Ce": 7815,
      "Ayr": 7816,
      "Idaho": 7817,
      "Method": 7818,
      "mort": 7819,
      "82": 7820,
      "Prague": 7821,
      "colonies": 7822,
      "rik": 7823,
      "limits": 7824,
      "amal": 7825,
      "1870": 7826,
      "Lutheran": 7827,
      "assembly": 7828,
      "Holstein": 7829,
      "Stockholm": 7830,
      "Pin": 7831,
      "mally": 7832,
      "Category": 7833,
      "Peace": 7834,
      "Ald": 7835,
      "Mack": 7836,
      "missile": 7837,
      "See": 7838,
      "Bened": 7839,
      "Pear": 7840,
      "eckl": 7841,
      "Stanley": 7842,
      "gi": 7843,
      "enemy": 7844,
      "Real": 7845,
      "Bomb": 7846,
      "Rub": 7847,
      "necess": 7848,
      "ounds": 7849,
      "Colombian": 7850,
      "cattle": 7851,
      "Veg": 7852,
      "mail": 7853,
      "relief": 7854,
      "Carlos": 7855,
      "oster": 7856,
      "aha": 7857,
      "setting": 7858,
      "privately": 7859,
      "foods": 7860,
      "Autonomous": 7861,
      "Lock": 7862,
      "Tot": 7863,
      "Yellow": 7864,
      "Maritime": 7865,
      "exhibits": 7866,
      "causing": 7867,
      "circul": 7868,
      "94": 7869,
      "Arn": 7870,
      "aukee": 7871,
      "orange": 7872,
      "railways": 7873,
      "tenance": 7874,
      "escap": 7875,
      "geographical": 7876,
      "aded": 7877,
      "founders": 7878,
      "fictional": 7879,
      "iot": 7880,
      "explorer": 7881,
      "dong": 7882,
      "iar": 7883,
      "Panama": 7884,
      "libr": 7885,
      "morph": 7886,
      "varieties": 7887,
      "attractions": 7888,
      "promotion": 7889,
      "Margaret": 7890,
      "artificial": 7891,
      "Baronet": 7892,
      "protests": 7893,
      "erald": 7894,
      "mills": 7895,
      "merger": 7896,
      "Miller": 7897,
      "aude": 7898,
      "tend": 7899,
      "1861": 7900,
      "amid": 7901,
      "Environment": 7902,
      "Manila": 7903,
      "volleyball": 7904,
      "involves": 7905,
      "FRS": 7906,
      "mobile": 7907,
      "compre": 7908,
      "trading": 7909,
      "accommod": 7910,
      "Gordon": 7911,
      "Bis": 7912,
      "Baltic": 7913,
      "fixed": 7914,
      "Duc": 7915,
      "duties": 7916,
      "outbreak": 7917,
      "attor": 7918,
      "Construction": 7919,
      "emocracy": 7920,
      "Micro": 7921,
      "Chel": 7922,
      "Harris": 7923,
      "Established": 7924,
      "portun": 7925,
      "stadt": 7926,
      "infl": 7927,
      "content": 7928,
      "rocks": 7929,
      "column": 7930,
      "Shire": 7931,
      "conventional": 7932,
      "Stew": 7933,
      "competes": 7934,
      "Ug": 7935,
      "oria": 7936,
      "iki": 7937,
      "ocy": 7938,
      "aren": 7939,
      "slopes": 7940,
      "castles": 7941,
      "survived": 7942,
      "Gur": 7943,
      "cott": 7944,
      "specimens": 7945,
      "Montgomery": 7946,
      "Industrial": 7947,
      "Thir": 7948,
      "ridae": 7949,
      "Aires": 7950,
      "Media": 7951,
      "Gmina": 7952,
      "Malay": 7953,
      "atmosp": 7954,
      "glac": 7955,
      "Algeria": 7956,
      "wed": 7957,
      "900": 7958,
      "EP": 7959,
      "decoration": 7960,
      "defeat": 7961,
      "actors": 7962,
      "Cen": 7963,
      "sin": 7964,
      "Ever": 7965,
      "hundreds": 7966,
      "unc": 7967,
      "leap": 7968,
      "ansk": 7969,
      "partnership": 7970,
      "IT": 7971,
      "spot": 7972,
      "arrived": 7973,
      "estyle": 7974,
      "Nottingham": 7975,
      "Plaza": 7976,
      "Christmas": 7977,
      "Madison": 7978,
      "photography": 7979,
      "extra": 7980,
      "UCI": 7981,
      "belt": 7982,
      "competitions": 7983,
      "musicians": 7984,
      "osc": 7985,
      "anni": 7986,
      "Phys": 7987,
      "Saturday": 7988,
      "physicist": 7989,
      "Buenos": 7990,
      "insects": 7991,
      "lobe": 7992,
      "honorary": 7993,
      "83": 7994,
      "aku": 7995,
      "hl": 7996,
      "uchy": 7997,
      "swick": 7998,
      "Properties": 7999,
      "hour": 8000,
      "bara": 8001,
      "gang": 8002,
      "1881": 8003,
      "catal": 8004,
      "immigrants": 8005,
      "isolated": 8006,
      "aire": 8007,
      "dishes": 8008,
      "fat": 8009,
      "gets": 8010,
      "ture": 8011,
      "youngest": 8012,
      "pas": 8013,
      "Former": 8014,
      "extant": 8015,
      "Amaz": 8016,
      "Andre": 8017,
      "dominant": 8018,
      "Schleswig": 8019,
      "Marqu": 8020,
      "categories": 8021,
      "hensive": 8022,
      "Morgan": 8023,
      "structural": 8024,
      "1863": 8025,
      "AG": 8026,
      "84": 8027,
      "jum": 8028,
      "tes": 8029,
      "Morris": 8030,
      "timeline": 8031,
      "Ga": 8032,
      "pseud": 8033,
      "partic": 8034,
      "numbered": 8035,
      "leaving": 8036,
      "resemb": 8037,
      "Eugene": 8038,
      "revolutionary": 8039,
      "Cum": 8040,
      "prolific": 8041,
      "sovereign": 8042,
      "bek": 8043,
      "Dominican": 8044,
      "shipping": 8045,
      "deputy": 8046,
      "Archdiocese": 8047,
      "apur": 8048,
      "Sheffield": 8049,
      "Pop": 8050,
      "Hend": 8051,
      "ontolog": 8052,
      "characteristic": 8053,
      "Slav": 8054,
      "Michel": 8055,
      "quarium": 8056,
      "Maharashtra": 8057,
      "horses": 8058,
      "yards": 8059,
      "letters": 8060,
      "galleries": 8061,
      "spelled": 8062,
      "Colleg": 8063,
      "expression": 8064,
      "physics": 8065,
      "minority": 8066,
      "NY": 8067,
      "Pic": 8068,
      "thyl": 8069,
      "Ice": 8070,
      "Wright": 8071,
      "synthesis": 8072,
      "1887": 8073,
      "Hein": 8074,
      "pus": 8075,
      "amphib": 8076,
      "sequence": 8077,
      "printed": 8078,
      "gender": 8079,
      "conqu": 8080,
      "stamps": 8081,
      "orton": 8082,
      "Guatem": 8083,
      "repe": 8084,
      "aph": 8085,
      "amer": 8086,
      "deriv": 8087,
      "effort": 8088,
      "domain": 8089,
      "imir": 8090,
      "chel": 8091,
      "drummer": 8092,
      "pent": 8093,
      "rifle": 8094,
      "Lac": 8095,
      "sits": 8096,
      "Medicine": 8097,
      "administrator": 8098,
      "Known": 8099,
      "bicycle": 8100,
      "omon": 8101,
      "centered": 8102,
      "damaged": 8103,
      "Near": 8104,
      "Arena": 8105,
      "oxy": 8106,
      "Colonel": 8107,
      "fisher": 8108,
      "uding": 8109,
      "cycling": 8110,
      "Alpes": 8111,
      "prising": 8112,
      "ective": 8113,
      "republic": 8114,
      "quarters": 8115,
      "urricanes": 8116,
      "strate": 8117,
      "indoor": 8118,
      "borg": 8119,
      "Romanesque": 8120,
      "expert": 8121,
      "ecessor": 8122,
      "hands": 8123,
      "Training": 8124,
      "orb": 8125,
      "coin": 8126,
      "installation": 8127,
      "botanical": 8128,
      "easily": 8129,
      "87": 8130,
      "Wed": 8131,
      "ecraft": 8132,
      "proteins": 8133,
      "concentration": 8134,
      "Phoenix": 8135,
      "Wes": 8136,
      "diversity": 8137,
      "honey": 8138,
      "oak": 8139,
      "charter": 8140,
      "Milw": 8141,
      "asi": 8142,
      "offensive": 8143,
      "Entertainment": 8144,
      "DP": 8145,
      "Episcopal": 8146,
      "brain": 8147,
      "confir": 8148,
      "buried": 8149,
      "porter": 8150,
      "carri": 8151,
      "Calais": 8152,
      "fail": 8153,
      "chosen": 8154,
      "Grant": 8155,
      "corps": 8156,
      "extreme": 8157,
      "predecessor": 8158,
      "Buddhism": 8159,
      "festivals": 8160,
      "infrastructure": 8161,
      "Ach": 8162,
      "Tul": 8163,
      "Treas": 8164,
      "phr": 8165,
      "circum": 8166,
      "furniture": 8167,
      "dings": 8168,
      "localized": 8169,
      "Sudan": 8170,
      "Cord": 8171,
      "urated": 8172,
      "scholars": 8173,
      "opol": 8174,
      "congressional": 8175,
      "abund": 8176,
      "steep": 8177,
      "accessible": 8178,
      "already": 8179,
      "interests": 8180,
      "Memb": 8181,
      "Dean": 8182,
      "attacks": 8183,
      "Westminster": 8184,
      "itol": 8185,
      "bellion": 8186,
      "filled": 8187,
      "tox": 8188,
      "Chang": 8189,
      "Haute": 8190,
      "memory": 8191,
      "exts": 8192,
      "reports": 8193,
      "allies": 8194,
      "Archae": 8195,
      "xi": 8196,
      "arrondissement": 8197,
      "Tab": 8198,
      "Abra": 8199,
      "Local": 8200,
      "Holland": 8201,
      "Web": 8202,
      "might": 8203,
      "Isa": 8204,
      "movies": 8205,
      "honour": 8206,
      "Britt": 8207,
      "Uttar": 8208,
      "tea": 8209,
      "convention": 8210,
      "Hub": 8211,
      "throne": 8212,
      "iling": 8213,
      "1894": 8214,
      "preservation": 8215,
      "bore": 8216,
      "icate": 8217,
      "bug": 8218,
      "punk": 8219,
      "initi": 8220,
      "Energy": 8221,
      "Lak": 8222,
      "Brothers": 8223,
      "rapidly": 8224,
      "owder": 8225,
      "Brunswick": 8226,
      "Dick": 8227,
      "iversary": 8228,
      "sit": 8229,
      "destroyer": 8230,
      "descendants": 8231,
      "runner": 8232,
      "archipelago": 8233,
      "Schools": 8234,
      "Scient": 8235,
      "organisms": 8236,
      "Cauc": 8237,
      "iph": 8238,
      "collector": 8239,
      "fame": 8240,
      "Mumb": 8241,
      "Tyr": 8242,
      "jew": 8243,
      "ented": 8244,
      "sense": 8245,
      "AM": 8246,
      "bahn": 8247,
      "Milwaukee": 8248,
      "Hand": 8249,
      "publications": 8250,
      "handed": 8251,
      "NS": 8252,
      "atar": 8253,
      "Add": 8254,
      "Theater": 8255,
      "emperor": 8256,
      "Worcester": 8257,
      "arrival": 8258,
      "Plat": 8259,
      "attorney": 8260,
      "considerable": 8261,
      "phenomen": 8262,
      "practices": 8263,
      "1800": 8264,
      "Monten": 8265,
      "settlers": 8266,
      "Kor": 8267,
      "duty": 8268,
      "tact": 8269,
      "collective": 8270,
      "decorative": 8271,
      "cancer": 8272,
      "competing": 8273,
      "Charlotte": 8274,
      "ayer": 8275,
      "boro": 8276,
      "ancellor": 8277,
      "harbour": 8278,
      "ipur": 8279,
      "alis": 8280,
      "intelligence": 8281,
      "ighton": 8282,
      "Kol": 8283,
      "Russell": 8284,
      "ecklenburg": 8285,
      "Lag": 8286,
      "Iv": 8287,
      "accred": 8288,
      "normal": 8289,
      "Auto": 8290,
      "Warren": 8291,
      "hur": 8292,
      "uters": 8293,
      "Kun": 8294,
      "Ludwig": 8295,
      "extensively": 8296,
      "industries": 8297,
      "neighboring": 8298,
      "winds": 8299,
      "starts": 8300,
      "territorial": 8301,
      "sweet": 8302,
      "Walker": 8303,
      "Studies": 8304,
      "Cruz": 8305,
      "rum": 8306,
      "EC": 8307,
      "statesman": 8308,
      "Tong": 8309,
      "naissance": 8310,
      "Knights": 8311,
      "93": 8312,
      "funded": 8313,
      "esti": 8314,
      "toward": 8315,
      "bab": 8316,
      "cavalry": 8317,
      "Parks": 8318,
      "Import": 8319,
      "hotels": 8320,
      "Pul": 8321,
      "strategic": 8322,
      "isk": 8323,
      "Ambassador": 8324,
      "Mumbai": 8325,
      "Kit": 8326,
      "Nash": 8327,
      "maintenance": 8328,
      "aus": 8329,
      "enroll": 8330,
      "Global": 8331,
      "princ": 8332,
      "neighbouring": 8333,
      "plus": 8334,
      "annex": 8335,
      "popularly": 8336,
      "restricted": 8337,
      "olly": 8338,
      "observ": 8339,
      "belonged": 8340,
      "Sumatra": 8341,
      "reve": 8342,
      "Joe": 8343,
      "tourists": 8344,
      "carn": 8345,
      "titled": 8346,
      "coloured": 8347,
      "presenter": 8348,
      "polar": 8349,
      "Kenya": 8350,
      "shi": 8351,
      "volcanic": 8352,
      "remot": 8353,
      "Patri": 8354,
      "Et": 8355,
      "spar": 8356,
      "strip": 8357,
      "Siles": 8358,
      "signal": 8359,
      "kaido": 8360,
      "Jay": 8361,
      "Ran": 8362,
      "GT": 8363,
      "Jak": 8364,
      "hun": 8365,
      "oring": 8366,
      "aple": 8367,
      "copper": 8368,
      "err": 8369,
      "sexual": 8370,
      "Highland": 8371,
      "limit": 8372,
      "concer": 8373,
      "1876": 8374,
      "Villa": 8375,
      "opportun": 8376,
      "If": 8377,
      "olid": 8378,
      "arta": 8379,
      "Oakland": 8380,
      "pharm": 8381,
      "zh": 8382,
      "Drive": 8383,
      "advert": 8384,
      "Syrian": 8385,
      "1888": 8386,
      "Luxemb": 8387,
      "publication": 8388,
      "golden": 8389,
      "astronomer": 8390,
      "equipped": 8391,
      "Hokkaido": 8392,
      "eria": 8393,
      "Beg": 8394,
      "Cameroon": 8395,
      "comprehensive": 8396,
      "eno": 8397,
      "ilit": 8398,
      "mu": 8399,
      "Fighter": 8400,
      "powers": 8401,
      "spr": 8402,
      "fab": 8403,
      "exception": 8404,
      "Eric": 8405,
      "Albania": 8406,
      "uro": 8407,
      "Hebrew": 8408,
      "Rou": 8409,
      "omber": 8410,
      "belief": 8411,
      "patri": 8412,
      "determined": 8413,
      "Inn": 8414,
      "Bohemian": 8415,
      "Bush": 8416,
      "Hunt": 8417,
      "NC": 8418,
      "decline": 8419,
      "chron": 8420,
      "deleg": 8421,
      "cave": 8422,
      "Arctic": 8423,
      "mines": 8424,
      "restoration": 8425,
      "Apol": 8426,
      "eta": 8427,
      "rend": 8428,
      "Cambod": 8429,
      "Five": 8430,
      "bria": 8431,
      "Andhra": 8432,
      "confirmed": 8433,
      "ds": 8434,
      "approved": 8435,
      "anca": 8436,
      "missionary": 8437,
      "straight": 8438,
      "enforcement": 8439,
      "Architecture": 8440,
      "DJ": 8441,
      "Ost": 8442,
      "nai": 8443,
      "osis": 8444,
      "insur": 8445,
      "excav": 8446,
      "Guil": 8447,
      "Mecklenburg": 8448,
      "opa": 8449,
      "carries": 8450,
      "arrangement": 8451,
      "Rot": 8452,
      "thet": 8453,
      "reaches": 8454,
      "Brittany": 8455,
      "Ply": 8456,
      "shark": 8457,
      "Taip": 8458,
      "weapon": 8459,
      "Fa": 8460,
      "tet": 8461,
      "etc": 8462,
      "uits": 8463,
      "background": 8464,
      "anger": 8465,
      "crime": 8466,
      "accident": 8467,
      "Lot": 8468,
      "Bourg": 8469,
      "centres": 8470,
      "Alliance": 8471,
      "documents": 8472,
      "severe": 8473,
      "iden": 8474,
      "tornado": 8475,
      "ubern": 8476,
      "config": 8477,
      "1868": 8478,
      "faculty": 8479,
      "tribes": 8480,
      "pto": 8481,
      "ultimately": 8482,
      "Independent": 8483,
      "Johannes": 8484,
      "tou": 8485,
      "ensed": 8486,
      "Bolivia": 8487,
      "string": 8488,
      "cous": 8489,
      "chin": 8490,
      "pole": 8491,
      "Nobel": 8492,
      "ske": 8493,
      "businesses": 8494,
      "agawa": 8495,
      "Abraham": 8496,
      "spa": 8497,
      "vertebr": 8498,
      "minim": 8499,
      "iah": 8500,
      "mathematics": 8501,
      "Ret": 8502,
      "ctuary": 8503,
      "ID": 8504,
      "lass": 8505,
      "rus": 8506,
      "ieg": 8507,
      "Grove": 8508,
      "bread": 8509,
      "eros": 8510,
      "cliff": 8511,
      "sym": 8512,
      "eing": 8513,
      "ussels": 8514,
      "1862": 8515,
      "focuses": 8516,
      "IA": 8517,
      "Kum": 8518,
      "blues": 8519,
      "elsewhere": 8520,
      "heir": 8521,
      "lingu": 8522,
      "Cheshire": 8523,
      "Surrey": 8524,
      "Init": 8525,
      "Herbert": 8526,
      "application": 8527,
      "abroad": 8528,
      "governments": 8529,
      "itarian": 8530,
      "extent": 8531,
      "biology": 8532,
      "die": 8533,
      "125": 8534,
      "Suz": 8535,
      "1864": 8536,
      "contact": 8537,
      "Latvia": 8538,
      "Maj": 8539,
      "oder": 8540,
      "improve": 8541,
      "clesiast": 8542,
      "letter": 8543,
      "standards": 8544,
      "Marshall": 8545,
      "Pon": 8546,
      "Youth": 8547,
      "aerial": 8548,
      "inland": 8549,
      "ashire": 8550,
      "viated": 8551,
      "Lancashire": 8552,
      "Mam": 8553,
      "victor": 8554,
      "kings": 8555,
      "shan": 8556,
      "intr": 8557,
      "Gabri": 8558,
      "SM": 8559,
      "stationed": 8560,
      "1860": 8561,
      "documentary": 8562,
      "Clay": 8563,
      "Arabic": 8564,
      "Kazakhstan": 8565,
      "overlooking": 8566,
      "ovsky": 8567,
      "RC": 8568,
      "Senior": 8569,
      "asant": 8570,
      "arc": 8571,
      "Om": 8572,
      "parliamentary": 8573,
      "Dist": 8574,
      "pyr": 8575,
      "swimming": 8576,
      "Muhammad": 8577,
      "Horse": 8578,
      "Hauts": 8579,
      "Dog": 8580,
      "icken": 8581,
      "kir": 8582,
      "inations": 8583,
      "abil": 8584,
      "ubernatorial": 8585,
      "Rav": 8586,
      "dual": 8587,
      "1880": 8588,
      "oko": 8589,
      "empire": 8590,
      "cooking": 8591,
      "Had": 8592,
      "historians": 8593,
      "roller": 8594,
      "Cass": 8595,
      "trucks": 8596,
      "aying": 8597,
      "ogist": 8598,
      "IP": 8599,
      "TC": 8600,
      "Kennedy": 8601,
      "gymn": 8602,
      "ulus": 8603,
      "Stewart": 8604,
      "Luxembourg": 8605,
      "Has": 8606,
      "Ow": 8607,
      "purple": 8608,
      "91": 8609,
      "coalition": 8610,
      "normally": 8611,
      "outs": 8612,
      "ceram": 8613,
      "ruling": 8614,
      "Catherine": 8615,
      "exchange": 8616,
      "measures": 8617,
      "Brandenburg": 8618,
      "essional": 8619,
      "Ferr": 8620,
      "acon": 8621,
      "breeds": 8622,
      "otted": 8623,
      "ucing": 8624,
      "cemetery": 8625,
      "pod": 8626,
      "arrest": 8627,
      "Kirk": 8628,
      "conductor": 8629,
      "itness": 8630,
      "defunct": 8631,
      "mollusc": 8632,
      "beauty": 8633,
      "itus": 8634,
      "Campbell": 8635,
      "Ax": 8636,
      "bol": 8637,
      "pra": 8638,
      "substantial": 8639,
      "ibl": 8640,
      "Marath": 8641,
      "intermediate": 8642,
      "enough": 8643,
      "Moz": 8644,
      "rolet": 8645,
      "1884": 8646,
      "draw": 8647,
      "ento": 8648,
      "coc": 8649,
      "neck": 8650,
      "kan": 8651,
      "Reich": 8652,
      "asa": 8653,
      "cht": 8654,
      "ipper": 8655,
      "Athletic": 8656,
      "Apost": 8657,
      "omorph": 8658,
      "correct": 8659,
      "conflicts": 8660,
      "aran": 8661,
      "Balk": 8662,
      "search": 8663,
      "Harvard": 8664,
      "Iber": 8665,
      "improved": 8666,
      "Seoul": 8667,
      "destruction": 8668,
      "Chevrolet": 8669,
      "scrap": 8670,
      "Vik": 8671,
      "olithic": 8672,
      "Burg": 8673,
      "Nelson": 8674,
      "Heights": 8675,
      "ceremonial": 8676,
      "electricity": 8677,
      "Giov": 8678,
      "engraver": 8679,
      "Much": 8680,
      "gart": 8681,
      "ancestry": 8682,
      "caster": 8683,
      "weed": 8684,
      "Polit": 8685,
      "exact": 8686,
      "aquatic": 8687,
      "Barr": 8688,
      "indicate": 8689,
      "Volunte": 8690,
      "acia": 8691,
      "effective": 8692,
      "Manuel": 8693,
      "patrol": 8694,
      "Bull": 8695,
      "brook": 8696,
      "Jar": 8697,
      "lens": 8698,
      "Comte": 8699,
      "350": 8700,
      "Progress": 8701,
      "reputation": 8702,
      "Sign": 8703,
      "trust": 8704,
      "controversial": 8705,
      "strug": 8706,
      "Thurs": 8707,
      "rocky": 8708,
      "clock": 8709,
      "bling": 8710,
      "broken": 8711,
      "survive": 8712,
      "accur": 8713,
      "wider": 8714,
      "terrain": 8715,
      "translator": 8716,
      "Rain": 8717,
      "cable": 8718,
      "Charl": 8719,
      "zig": 8720,
      "displays": 8721,
      "nomination": 8722,
      "reasons": 8723,
      "Officer": 8724,
      "Cort": 8725,
      "ouses": 8726,
      "Night": 8727,
      "representation": 8728,
      "Uz": 8729,
      "claims": 8730,
      "acle": 8731,
      "audio": 8732,
      "taxonom": 8733,
      "aman": 8734,
      "interchange": 8735,
      "specializing": 8736,
      "elder": 8737,
      "gubernatorial": 8738,
      "lis": 8739,
      "Rhe": 8740,
      "overseas": 8741,
      "Sebast": 8742,
      "Governorate": 8743,
      "aristo": 8744,
      "igate": 8745,
      "bottom": 8746,
      "Gujarat": 8747,
      "strike": 8748,
      "peaks": 8749,
      "Trinity": 8750,
      "fifteen": 8751,
      "Filipino": 8752,
      "entially": 8753,
      "Presby": 8754,
      "clesiastical": 8755,
      "fried": 8756,
      "shallow": 8757,
      "replacement": 8758,
      "Economic": 8759,
      "kok": 8760,
      "ongo": 8761,
      "instrumental": 8762,
      "agi": 8763,
      "spacecraft": 8764,
      "behavior": 8765,
      "blocks": 8766,
      "undergraduate": 8767,
      "Indians": 8768,
      "Bowl": 8769,
      "Ferdin": 8770,
      "Salvador": 8771,
      "Father": 8772,
      "1857": 8773,
      "Prussian": 8774,
      "Ethiopia": 8775,
      "siege": 8776,
      "terior": 8777,
      "cataly": 8778,
      "OS": 8779,
      "ivorous": 8780,
      "grave": 8781,
      "Aud": 8782,
      "alu": 8783,
      "themes": 8784,
      "ride": 8785,
      "amalgam": 8786,
      "agogue": 8787,
      "Santi": 8788,
      "Wellington": 8789,
      "Mik": 8790,
      "elong": 8791,
      "chlor": 8792,
      "ennis": 8793,
      "icester": 8794,
      "Members": 8795,
      "1848": 8796,
      "mob": 8797,
      "Moore": 8798,
      "jer": 8799,
      "repair": 8800,
      "Mongolia": 8801,
      "genres": 8802,
      "Tanz": 8803,
      "Vincent": 8804,
      "coffee": 8805,
      "eigh": 8806,
      "Pel": 8807,
      "BS": 8808,
      "Ferdinand": 8809,
      "rept": 8810,
      "goes": 8811,
      "Eli": 8812,
      "ninth": 8813,
      "Staf": 8814,
      "advocate": 8815,
      "lunar": 8816,
      "driven": 8817,
      "iaceae": 8818,
      "tunnel": 8819,
      "abbreviated": 8820,
      "Delta": 8821,
      "hof": 8822,
      "love": 8823,
      "Jacques": 8824,
      "weekly": 8825,
      "Roche": 8826,
      "Pedro": 8827,
      "replacing": 8828,
      "Tigers": 8829,
      "linder": 8830,
      "Cob": 8831,
      "1867": 8832,
      "intel": 8833,
      "lieutenant": 8834,
      "Trent": 8835,
      "receive": 8836,
      "Siber": 8837,
      "latest": 8838,
      "institute": 8839,
      "Inner": 8840,
      "cycles": 8841,
      "Anderson": 8842,
      "Professional": 8843,
      "iology": 8844,
      "Saxon": 8845,
      "Tunisia": 8846,
      "harmon": 8847,
      "Aquit": 8848,
      "Emil": 8849,
      "colleges": 8850,
      "Complex": 8851,
      "fold": 8852,
      "consort": 8853,
      "encour": 8854,
      "Chem": 8855,
      "pure": 8856,
      "Indies": 8857,
      "courts": 8858,
      "rescue": 8859,
      "patterns": 8860,
      "Kath": 8861,
      "roph": 8862,
      "linear": 8863,
      "Wayne": 8864,
      "consult": 8865,
      "fungi": 8866,
      "processing": 8867,
      "Shim": 8868,
      "Aur": 8869,
      "user": 8870,
      "blo": 8871,
      "decision": 8872,
      "loop": 8873,
      "chapter": 8874,
      "Dong": 8875,
      "assass": 8876,
      "ovic": 8877,
      "marks": 8878,
      "limestone": 8879,
      "Albanian": 8880,
      "obsc": 8881,
      "Sn": 8882,
      "izer": 8883,
      "elevated": 8884,
      "Priv": 8885,
      "Suff": 8886,
      "Catalonia": 8887,
      "reduce": 8888,
      "Deutsche": 8889,
      "affairs": 8890,
      "farming": 8891,
      "rolling": 8892,
      "Benedict": 8893,
      "understanding": 8894,
      "marsh": 8895,
      "Yugoslavia": 8896,
      "Franz": 8897,
      "occupies": 8898,
      "exhibitions": 8899,
      "Kolk": 8900,
      "varied": 8901,
      "vertical": 8902,
      "Cyprus": 8903,
      "Theod": 8904,
      "Strait": 8905,
      "Loch": 8906,
      "mant": 8907,
      "lifetime": 8908,
      "sciences": 8909,
      "Rut": 8910,
      "Zim": 8911,
      "aired": 8912,
      "martial": 8913,
      "nit": 8914,
      "income": 8915,
      "Himal": 8916,
      "inals": 8917,
      "tool": 8918,
      "urers": 8919,
      "Pom": 8920,
      "sted": 8921,
      "Istan": 8922,
      "Murray": 8923,
      "lizard": 8924,
      "Bald": 8925,
      "publishing": 8926,
      "aristocr": 8927,
      "galaxy": 8928,
      "Cin": 8929,
      "NBC": 8930,
      "osy": 8931,
      "aurus": 8932,
      "scenic": 8933,
      "Thursday": 8934,
      "admiral": 8935,
      "Previous": 8936,
      "Istanbul": 8937,
      "rated": 8938,
      "revenue": 8939,
      "mush": 8940,
      "Democrat": 8941,
      "contested": 8942,
      "enge": 8943,
      "spiritual": 8944,
      "subcontinent": 8945,
      "Iz": 8946,
      "resign": 8947,
      "inus": 8948,
      "artif": 8949,
      "hosp": 8950,
      "isphere": 8951,
      "Ayrshire": 8952,
      "retained": 8953,
      "painters": 8954,
      "Suffolk": 8955,
      "respective": 8956,
      "bull": 8957,
      "evo": 8958,
      "peer": 8959,
      "prominence": 8960,
      "ikes": 8961,
      "Subway": 8962,
      "goalkeeper": 8963,
      "ilian": 8964,
      "oreg": 8965,
      "scribed": 8966,
      "Fellow": 8967,
      "gradually": 8968,
      "Barn": 8969,
      "absor": 8970,
      "Java": 8971,
      "deployed": 8972,
      "Presbyter": 8973,
      "Aquitaine": 8974,
      "website": 8975,
      "Santo": 8976,
      "deaths": 8977,
      "hausen": 8978,
      "inducted": 8979,
      "regiments": 8980,
      "challeng": 8981,
      "hurricanes": 8982,
      "abilities": 8983,
      "Game": 8984,
      "Sig": 8985,
      "Vale": 8986,
      "1871": 8987,
      "vised": 8988,
      "reality": 8989,
      "Years": 8990,
      "rising": 8991,
      "cylinder": 8992,
      "recreation": 8993,
      "ource": 8994,
      "anniversary": 8995,
      "Taipei": 8996,
      "conservative": 8997,
      "Ground": 8998,
      "decided": 8999,
      "Otto": 9000,
      "aquarium": 9001,
      "nobleman": 9002,
      "redes": 9003,
      "Singh": 9004,
      "Bund": 9005,
      "Mang": 9006,
      "appearing": 9007,
      "thousand": 9008,
      "cock": 9009,
      "pill": 9010,
      "sustain": 9011,
      "Cot": 9012,
      "antiqu": 9013,
      "ceived": 9014,
      "Kom": 9015,
      "golf": 9016,
      "pson": 9017,
      "Brussels": 9018,
      "duo": 9019,
      "segment": 9020,
      "thirteen": 9021,
      "Cav": 9022,
      "orning": 9023,
      "dogs": 9024,
      "Mig": 9025,
      "Carni": 9026,
      "prints": 9027,
      "landmarks": 9028,
      "Clinton": 9029,
      "aes": 9030,
      "ipts": 9031,
      "Osaka": 9032,
      "LC": 9033,
      "engaged": 9034,
      "broke": 9035,
      "collo": 9036,
      "Mike": 9037,
      "ih": 9038,
      "olph": 9039,
      "roe": 9040,
      "onne": 9041,
      "Vern": 9042,
      "encer": 9043,
      "ownership": 9044,
      "Chennai": 9045,
      "squadrons": 9046,
      "accredited": 9047,
      "refuge": 9048,
      "Diam": 9049,
      "excell": 9050,
      "rell": 9051,
      "Brig": 9052,
      "explos": 9053,
      "rio": 9054,
      "Ming": 9055,
      "ethn": 9056,
      "Equ": 9057,
      "Const": 9058,
      "secretary": 9059,
      "originating": 9060,
      "helicopter": 9061,
      "Plymouth": 9062,
      "Ja": 9063,
      "northernmost": 9064,
      "Tag": 9065,
      "flights": 9066,
      "reef": 9067,
      "Att": 9068,
      "equal": 9069,
      "sought": 9070,
      "generated": 9071,
      "variations": 9072,
      "wel": 9073,
      "abbey": 9074,
      "facing": 9075,
      "rulers": 9076,
      "pioneering": 9077,
      "Assist": 9078,
      "policies": 9079,
      "1873": 9080,
      "Mongol": 9081,
      "occasions": 9082,
      "RAF": 9083,
      "Dig": 9084,
      "cod": 9085,
      "seed": 9086,
      "liner": 9087,
      "trial": 9088,
      "Leicester": 9089,
      "sler": 9090,
      "congregation": 9091,
      "lore": 9092,
      "1859": 9093,
      "Kolkata": 9094,
      "Here": 9095,
      "embassy": 9096,
      "pictures": 9097,
      "Cos": 9098,
      "preserve": 9099,
      "Dem": 9100,
      "Lub": 9101,
      "WW": 9102,
      "Ec": 9103,
      "exists": 9104,
      "lith": 9105,
      "Newport": 9106,
      "athing": 9107,
      "Grey": 9108,
      "civilization": 9109,
      "elite": 9110,
      "sailing": 9111,
      "Cenozoic": 9112,
      "cold": 9113,
      "photographs": 9114,
      "Bourgogne": 9115,
      "actually": 9116,
      "velle": 9117,
      "democr": 9118,
      "shima": 9119,
      "oker": 9120,
      "Serge": 9121,
      "eggs": 9122,
      "FIFA": 9123,
      "electr": 9124,
      "automatic": 9125,
      "Side": 9126,
      "valu": 9127,
      "Plain": 9128,
      "reck": 9129,
      "coral": 9130,
      "Bod": 9131,
      "stro": 9132,
      "rowing": 9133,
      "Thompson": 9134,
      "campaigns": 9135,
      "Wool": 9136,
      "Wa": 9137,
      "thel": 9138,
      "Food": 9139,
      "Paragu": 9140,
      "pilgr": 9141,
      "Riv": 9142,
      "Wu": 9143,
      "mountainous": 9144,
      "serious": 9145,
      "constitutional": 9146,
      "weeks": 9147,
      "intellect": 9148,
      "gio": 9149,
      "prey": 9150,
      "Harrison": 9151,
      "Must": 9152,
      "apa": 9153,
      "Methodist": 9154,
      "alam": 9155,
      "Duchy": 9156,
      "Freedom": 9157,
      "spanning": 9158,
      "Gill": 9159,
      "Casc": 9160,
      "olve": 9161,
      "specialist": 9162,
      "ushu": 9163,
      "registr": 9164,
      "That": 9165,
      "Once": 9166,
      "bordering": 9167,
      "Pow": 9168,
      "Tues": 9169,
      "Within": 9170,
      "KC": 9171,
      "rides": 9172,
      "inia": 9173,
      "dles": 9174,
      "hydrogen": 9175,
      "Telev": 9176,
      "Estate": 9177,
      "sav": 9178,
      "pri": 9179,
      "Heart": 9180,
      "Cemetery": 9181,
      "Guy": 9182,
      "ifying": 9183,
      "auth": 9184,
      "offering": 9185,
      "girls": 9186,
      "roid": 9187,
      "collab": 9188,
      "goals": 9189,
      "remote": 9190,
      "ornam": 9191,
      "chess": 9192,
      "Bear": 9193,
      "geographic": 9194,
      "Roberts": 9195,
      "Eagle": 9196,
      "vit": 9197,
      "Leader": 9198,
      "Cle": 9199,
      "Sard": 9200,
      "voy": 9201,
      "opod": 9202,
      "uckland": 9203,
      "Cris": 9204,
      "communist": 9205,
      "margin": 9206,
      "Guatemala": 9207,
      "Initially": 9208,
      "Mind": 9209,
      "fortifications": 9210,
      "reason": 9211,
      "experienced": 9212,
      "collaboration": 9213,
      "Ric": 9214,
      "narr": 9215,
      "Liberty": 9216,
      "Monday": 9217,
      "forty": 9218,
      "clin": 9219,
      "departments": 9220,
      "alum": 9221,
      "Jun": 9222,
      "Sof": 9223,
      "Shuttle": 9224,
      "1878": 9225,
      "Cuban": 9226,
      "cruise": 9227,
      "Uruguay": 9228,
      "aser": 9229,
      "icial": 9230,
      "Code": 9231,
      "amine": 9232,
      "ulate": 9233,
      "external": 9234,
      "ifer": 9235,
      "2000s": 9236,
      "bought": 9237,
      "kill": 9238,
      "eda": 9239,
      "twer": 9240,
      "Ernest": 9241,
      "printing": 9242,
      "Production": 9243,
      "alpine": 9244,
      "builder": 9245,
      "constellation": 9246,
      "drin": 9247,
      "Gand": 9248,
      "crab": 9249,
      "iant": 9250,
      "Athletics": 9251,
      "Back": 9252,
      "matter": 9253,
      "Speed": 9254,
      "oce": 9255,
      "Based": 9256,
      "regime": 9257,
      "agencies": 9258,
      "trip": 9259,
      "crust": 9260,
      "deck": 9261,
      "JR": 9262,
      "formations": 9263,
      "advant": 9264,
      "Carniola": 9265,
      "estates": 9266,
      "aba": 9267,
      "Isles": 9268,
      "Coal": 9269,
      "thereby": 9270,
      "iao": 9271,
      "plastic": 9272,
      "Trade": 9273,
      "Eld": 9274,
      "rode": 9275,
      "faith": 9276,
      "Non": 9277,
      "Wan": 9278,
      "owns": 9279,
      "Colonial": 9280,
      "Presbyterian": 9281,
      "Astr": 9282,
      "fjord": 9283,
      "Flag": 9284,
      "asian": 9285,
      "Combat": 9286,
      "encia": 9287,
      "agreement": 9288,
      "Sicily": 9289,
      "eni": 9290,
      "wealthy": 9291,
      "Television": 9292,
      "clean": 9293,
      "Interior": 9294,
      "ridor": 9295,
      "fu": 9296,
      "About": 9297,
      "speaker": 9298,
      "idad": 9299,
      "flags": 9300,
      "piano": 9301,
      "Steel": 9302,
      "nac": 9303,
      "wire": 9304,
      "emergency": 9305,
      "semin": 9306,
      "ateral": 9307,
      "debuted": 9308,
      "Scar": 9309,
      "somewhat": 9310,
      "charged": 9311,
      "factors": 9312,
      "Dod": 9313,
      "uca": 9314,
      "completion": 9315,
      "platforms": 9316,
      "Beaut": 9317,
      "Put": 9318,
      "accompl": 9319,
      "colloqu": 9320,
      "reactions": 9321,
      "mammal": 9322,
      "Pyren": 9323,
      "presidency": 9324,
      "Territorial": 9325,
      "Monastery": 9326,
      "Giovanni": 9327,
      "uka": 9328,
      "employees": 9329,
      "maintains": 9330,
      "Fine": 9331,
      "encing": 9332,
      "Perry": 9333,
      "Sad": 9334,
      "performer": 9335,
      "Dame": 9336,
      "governed": 9337,
      "episode": 9338,
      "optical": 9339,
      "continuously": 9340,
      "Cote": 9341,
      "Gy": 9342,
      "Tampa": 9343,
      "agles": 9344,
      "ideas": 9345,
      "Tech": 9346,
      "egg": 9347,
      "Tuesday": 9348,
      "agues": 9349,
      "Venezuelan": 9350,
      "Care": 9351,
      "Fund": 9352,
      "tools": 9353,
      "elab": 9354,
      "Highlands": 9355,
      "differences": 9356,
      "demand": 9357,
      "interpret": 9358,
      "powder": 9359,
      "vet": 9360,
      "Siege": 9361,
      "orbit": 9362,
      "Chal": 9363,
      "commercially": 9364,
      "Sut": 9365,
      "fill": 9366,
      "ieu": 9367,
      "cany": 9368,
      "Antwer": 9369,
      "cant": 9370,
      "postal": 9371,
      "Walloon": 9372,
      "killing": 9373,
      "101": 9374,
      "defend": 9375,
      "botanist": 9376,
      "AP": 9377,
      "depression": 9378,
      "Trump": 9379,
      "membrane": 9380,
      "cards": 9381,
      "committee": 9382,
      "Living": 9383,
      "Shakes": 9384,
      "naturally": 9385,
      "Bag": 9386,
      "dock": 9387,
      "lyde": 9388,
      "Saudi": 9389,
      "freedom": 9390,
      "Classical": 9391,
      "adier": 9392,
      "oting": 9393,
      "upt": 9394,
      "meant": 9395,
      "Cou": 9396,
      "ening": 9397,
      "poll": 9398,
      "streams": 9399,
      "prestigious": 9400,
      "Whe": 9401,
      "incident": 9402,
      "Rhone": 9403,
      "Observatory": 9404,
      "Fuku": 9405,
      "dar": 9406,
      "Systems": 9407,
      "Mend": 9408,
      "Trin": 9409,
      "1883": 9410,
      "artifacts": 9411,
      "expensive": 9412,
      "ER": 9413,
      "Gan": 9414,
      "Pack": 9415,
      "scop": 9416,
      "Anhalt": 9417,
      "gae": 9418,
      "rano": 9419,
      "Santiago": 9420,
      "fol": 9421,
      "watch": 9422,
      "chromos": 9423,
      "Baker": 9424,
      "distinction": 9425,
[...]
